[PAD]
[UNK]
[CLS]
[SEP]
[MASK]
##er
##en
s
d
##et
a
f
o
m
##in
h
##or
##ti
##an
##ed
##el
v
b
k
i
p
##ig
og
##es
##ar
for
##de
l
ti
##st
##ing
g
er
en
at
##al
##re
##om
n
til
t
af
##sk
##le
det
##ag
u
##on
##ter
##nd
##eg
på
##il
##kk
der
##ne
med
##te
##ver
##ra
j
##ør
##ler
st
##lig
##der
de
##se
sk
den
r
##ol
##is
##ær
##år
##kke
in
ud
##am
vi
hv
##and
##ning
har
##ge
som
##at
om
##og
##un
##od
e
et
du
##ve
kan
ikke
jeg
##id
##ru
op
##ende
så
al
##ere
##ik
##it
##ede
pr
##ur
##ad
##hed
##ej
men
el
ind
1
##as
##æl
man
c
##tion
##els
##ens
##ske
var
bl
##else
##ul
##for
##ri
##em
##av
##ger
##ræ
sam
-
##ent
2
fra
sp
an
##ek
##erne
eller
vil
##ab
hvor
##omm
##fter
##us
##ste
##elig
##ud
over
##ind
væ
ved
skal
##end
##ang
##nder
##est
sig
##ks
##øj
##age
re
##old
##op
##så
##øb
må
##iv
##elt
##lev
##bej
##lige
han
##kt
##sp
##ov
efter
##ort
and
##mm
ar
nog
##tig
se
også
kun
##æn
(
##ok
komm
##til
være
##ling
##iver
##ation
##yg
##æg
##ød
##und
år
##ft
kon
##ist
##ige
her
ny
##den
##ot
sel
kl
##ser
dan
god
bru
blev
bes
##eget
hj
ø
##æt
##yr
##ut
hvis
##ine
##pp
##ligt
##dan
be
##gen
##os
under
##ave
##ale
gen
##kker
##lem
##øl
selv
vær
##me
##ring
meget
##vær
før
"
##nes
##men
##sen
##ir
##let
##ive
##hold
##ænd
##ob
##ak
end
sm
få
##isk
når
alle
20
##ic
##ret
hel
##sm
##art
##ff
3
##ene
arbej
tr
dig
##tet
hav
##ark
##var
##det
min
##rem
mod
##tid
##øg
fl
pl
##sl
##yd
##ke
##ers
si
##um
da
sid
##vis
tid
stor
##eder
kv
##yl
##idt
mange
læ
mere
mu
nu
##ager
##skab
dag
vor
##ion
fin
kr
##yn
##ie
##øre
##itet
##ass
bet
bil
##..
br
##ker
##elser
##ninger
##lighed
##elsen
##ner
##este
##eret
din
##ant
##øn
##tiv
sl
køb
vores
##nem
bar
vir
##net
w
bliver
havde
denne
##ord
tilb
##per
mig
hun
frem
kunne
##rå
##mer
##igt
##alg
##æng
##iske
##ys
##di
##yt
hvad
##be
##kl
bed
bør
##lere
fr
##ber
udv
godt
noget
##ingen
have
dem
dette
høj
##del
##jer
alt
andre
##mp
##ast
##tr
##ten
##ac
forsk
##oc
4
##yst
lig
##igtig
sex
##00
brug
##arbej
##tisk
##yder
kom
##æld
reg
##ap
deres
##led
or
##im
beg
##ade
ret
helt
træ
##ater
##agt
##gang
##rund
5
##ningen
##pr
del
##tal
to
##læg
uden
##ss
hver
forb
##dag
un
lidt
##eb
beh
sammen
##erson
sø
##ier
ad
gra
lige
##odu
##ket
os
##land
##...
##ost
201
##ch
mel
ra
nogle
##før
ser
##dt
hjem
##sæt
gennem
gl
par
le
form
##alt
##tik
forskel
##ode
##of
får
næ
vej
##ien
##vend
##ce
##ess
##ksom
##sker
ch
person
hele
været
##ånd
flere
##sat
##yk
##åde
##org
føl
fors
jo
th
##aget
##atur
##ktion
##enter
##avn
##ål
##pe
inter
##les
##mmer
nye
##ange
samt
##ide
ned
blive
##pl
##af
fort
##ille
sy
derfor
ek
##inder
mellem
##isse
sin
lang
eg
##elle
su
inden
igen
hvil
##elige
mind
stør
ma
##iser
##eligt
gør
kommer
skul
hen
kont
##ksomhed
både
gang
##dr
##åb
hjæl
6
##sb
##elses
##ug
sen
land
##ald
##hol
grund
produ
store
første
mass
bare
##ci
##dere
19
gr
hvordan
##ets
øn
##øde
arbejd
##vej
##ven
danm
bo
mulighed
##ult
##aler
##get
##ans
ven
##inger
forskellige
besk
##gør
ak
##ub
børn
##tes
##vet
##over
udvik
##ekt
##ati
hos
##red
skulle
des
##nings
ty
##kken
liv
di
##dk
##øs
dr
##andt
##under
per
##ighed
##inde
net
gå
dog
##hus
##mel
andet
gøre
##føl
far
massage
sted
hol
går
fri
##orn
##stil
##oli
dat
##cer
##ørg
spil
vel
dit
natur
ev
res
##).
giver
dansk
##kon
7
samme
ville
##sten
anden
siden
##form
nem
virksomhed
##akt
vand
##giv
byg
præ
##andling
mand
altid
mennes
##gende
tilf
##ster
kommun
finde
forhold
ver
##ken
##tige
##je
omk
disse
##ma
##åd
##au
##fte
sikker
##ads
##oved
##nu
bag
fik
rigtig
##ister
lu
##fl
##tere
stil
fol
danske
##aver
##dann
løb
væl
##ræn
blevet
##gi
ans
8
##alitet
##lede
sn
##endt
##oj
by
ham
lille
opl
danmark
##tiske
pen
##havn
##amp
##unkt
nok
hans
##rer
##kket
tilbage
mor
es
##ings
enk
skab
##bl
##ynd
##ære
arbejde
dine
10
gerne
##br
##uld
##rupp
fordi
##asse
##ele
##oder
sag
##mme
mil
##olog
##len
åb
##hver
skri
on
fil
##ligere
kvinder
hånd
sær
sådan
##tag
sit
##ogra
side
virk
##jen
lav
##rug
hold
områ
tra
best
sæt
.
gode
##ard
ingen
nær
sv
kra
bedste
str
sidste
##ester
##tis
##oblem
måske
hur
##fat
gener
komme
200
is
##yld
plan
##som
##anden
##istor
tage
##stå
##ust
##asser
led
##ører
hoved
valg
##amil
##ader
##ole
fast
inde
gam
vigtig
måde
##ow
omkring
eks
##sel
lov
##borg
lever
##esk
siger
vide
##tem
##are
hand
##bet
9
ord
##ærd
##tigt
##ationer
##æv
##tte
nød
ting
mål
ænd
porn
tek
##aft
tv
##kter
##med
spe
lok
spørg
##gå
poli
tæn
mark
##enhavn
sj
##endes
##ække
##eks
mest
##iger
kn
læng
##vi
bruger
bruge
ønsker
hal
nogen
problem
find
københavn
##komm
##eller
##ærk
##ystem
##bo
stad
øj
prø
aller
fun
speci
##sted
bor
##reg
##styr
te
##ledes
##ia
give
off
##far
,
##iner
jer
##res
##riv
mad
ber
mænd
tre
##stra
famil
gratis
mån
kort
##entlig
pris
hus
rej
proj
blandt
mindre
##løb
##ges
spørgsm
udvikling
smu
delt
hvilket
met
##ringer
##opp
sol
bedre
bek
##ai
##ælles
18
tur
##arbejde
lær
##leder
'
##spr
sik
##),
gj
##ældre
uddann
histor
##stru
##oci
ligger
##søg
##sh
muligt
let
##vir
kræ
nor
##sn
##all
##anske
hjælp
lej
folk
fortæl
mens
hår
mar
##mes
mennesker
##æk
ben
opg
##ande
##undet
mit
endnu
##up
nord
##sti
svar
##spunkt
1.
sund
kar
bog
red
oplev
##ank
##indelse
finder
##heden
nyt
stadig
samtid
række
fået
ro
virkelig
##lad
##går
##antas
##min
først
råd
esc
im
kvalitet
##line
##byg
##oner
##oks
anvend
##æss
små
bu
##øger
hu
fantas
ofte
soci
tager
gange
egen
står
escort
ski
##tivitet
verden
ekse
komp
lå
styr
sæ
ly
fælles
ej
års
unge
pa
##gt
rund
ele
##uden
##sf
hot
y
und
spørgsmål
##rek
##iet
kor
##vid
kri
##vic
eksemp
am
##vel
##ider
mus
klar
##træ
15
##ren
##ove
##hæng
mine
stra
ide
start
vin
ja
vis
større
fak
12
##io
##hj
##set
dej
##tim
##li
stort
set
forbindelse
##jø
##tede
pra
##rift
0
proc
##lag
dage
forv
##holder
læg
ca
online
##konom
kær
##teg
længere
##stand
##lerne
##syn
findes
##teret
udvalg
fag
##sg
tidligere
##sam
##øv
lave
kal
samtidig
behandling
##nen
##by
synes
##ateri
oplys
gik
##okus
mang
##000
væk
ren
##fer
##stilling
allerede
søger
aldr
##utter
##ytte
ener
langt
syn
##omme
hende
##dom
rest
kontakt
##cep
dy
aldrig
øv
##sfor
dyr
##bef
bi
org
bolig
##app
rig
eff
fokus
forh
kø
##heder
sommer
##ælder
svær
erhver
##mær
##>>
sine
prof
bel
##ay
faktisk
sc
##".
##øm
##olen
hendes
##områ
result
altså
##tu
##van
rundt
medarbej
##terne
spr
læs
sh
stand
sige
mød
fal
##agen
således
spænd
voks
##ænge
ekstra
##eter
##mind
hjemmes
##ue
konk
##une
##telse
piger
plads
hurtigt
modt
##mere
behov
##par
løs
##aff
##ativ
fre
##idler
##urder
priv
gu
kir
##fon
æg
##tive
gamle
##olle
##alis
videre
næste
##ration
viser
##revet
sat
##gelig
##ultur
##ro
afsl
tæt
penge
##ering
##elte
em
ste
kur
web
##uds
holde
##ykke
betyder
tab
##if
stat
anbef
leg
kør
fuld
eng
økonom
##brug
ab
lin
nødvend
kat
2.
##tra
erhverv
tekn
##ført
x
##aling
vælge
/
billeder
##iveau
yder
tog
film
tal
##ender
##kom
købe
grøn
thai
eur
vigtigt
##rik
hvert
foret
sundhed
##væg
fer
besl
:
##skaber
tem
stedet
##iden
kvinde
grupp
##rev
nemlig
fød
fræ
tag
tilfæl
##uelle
glæ
##slag
po
tilbud
erfar
##anis
fej
eksempel
desig
##endte
viden
11
inv
undersøg
%
kommune
##lever
bestil
hjælpe
##alet
tiden
flot
##",
##vil
##efter
næsten
blot
haft
##snit
video
##ationen
teg
servic
super
arbejder
besøg
##ym
ann
begynd
##ib
giv
udb
sand
mindst
14
##ip
##rekte
##fra
##ensen
##ansk
##la
antal
##sigt
mon
##uder
slag
##edes
ter
##rede
fleste
porno
mo
##ts
##ærke
##læ
interes
##iller
fordel
enkelte
stk
især
##ise
##rig
stø
##nede
beslut
syg
igennem
*
30
hvorfor
##grund
us
##ga
fi
ris
##værk
jul
##trol
##øse
tale
##rag
bud
##dens
kæ
skøn
læse
##derne
halv
ol
>>
##tek
##osi
norm
##udv
fjer
funktion
skabe
lavet
##sdag
##sent
ansvar
event
morgen
16
##ate
z
##ator
udfor
##one
nr
liges
måned
##unde
samarbejde
##præ
oplysninger
taget
hin
##20
opf
##tioner
tror
aut
##akter
17
undervis
inform
aktivitet
lys
syd
via
##skabet
vind
##yde
##off
ung
værdi
enkelt
ul
kultur
##plan
##mmet
vurder
##stænd
ju
krav
kamp
##<<
netop
##lemmer
##ået
materi
hotel
##ligvis
sikkert
##our
fod
##beh
##vand
##skud
##iddel
##ylland
##ask
##satte
ban
ful
##ledning
selvom
færd
kig
bruges
produkter
peri
bryst
##po
kap
forstå
kost
##orde
herunder
bestyr
anal
projek
##son
##elefon
kunst
##vn
job
##ved
selvføl
##øren
##ikke
aften
ps
##-1
lyst
omfat
##ioner
almind
skole
ude
##oppen
hyg
begge
senere
cent
##kning
13
jan
##aden
##fik
europ
the
##entet
største
tilfælde
##atter
virksomheder
##bil
##unden
luft
marked
app
midt
betyd
sikre
miljø
gælder
system
sti
lo
vid
##meld
ejend
tro
svært
##yldt
sker
hjer
fantastisk
elever
##ældende
##ppe
selvfølgelig
25
##amer
direkte
øvr
gar
hæ
##tryk
##ession
ander
ring
##stre
##iss
ellers
##oden
hvilke
##oler
##ben
effek
##ps
hør
afgør
desuden
##året
musik
##mt
##terer
opmær
##ef
adgang
##ital
##spl
##øder
indhold
tak
##ori
##bar
##cen
mob
prak
grad
tør
ne
##ening
star
nat
##elserne
##færd
##bu
100
opret
dermed
moder
##øge
sagde
##ann
timer
##uler
hens
plac
##ance
##cent
##omp
hinanden
følge
indtil
spændende
3.
ældre
##ont
bas
løbet
##rej
##edt
opd
##ikker
##int
ru
forl
##ander
fot
##vende
##ct
sæl
fø
##ich
li
perf
##cc
fys
længe
##leje
medlem
ni
lækker
vist
fald
brugt
##ikring
ang
størr
samf
sikkerhed
regn
pige
klub
hjemme
fac
fred
barn
personer
##ite
ge
gjort
##vor
stud
sej
##klar
fortæller
udgang
##rum
##tering
møde
følgende
heller
...
steder
passer
psyk
##skil
familie
indsat
##lej
##øver
##rekt
sagt
arbejdet
##orden
##alen
fem
##rør
uge
rel
##aur
pati
salg
slut
produkt
holder
sætte
##kv
dæ
børne
tilbyder
mener
##tale
tan
##irk
##orer
##jerg
varme
insp
posi
opn
##mod
##anter
##tivt
##eren
##æst
progra
masse
elsker
fx
tru
slet
bedst
##ift
intern
risik
##fri
laver
dår
dating
##sv
##dig
##øst
##køb
navn
##aa
dagen
fire
##ytter
skat
##arks
ta
telefon
måtte
højt
hjemmeside
projekt
##ck
fores
##kkes
##arbejd
problemer
muligheder
annon
##lagt
rejse
##fald
##ykker
##værende
borger
jun
lad
##tro
##spil
1,
indeholder
##str
eneste
##ograf
billed
bestem
skyld
##met
##føre
##kkede
område
dok
##.000
krop
baggrund
##fr
kontrol
energi
##ure
##ivers
området
bem
##smæss
maj
stå
50
##erer
##ina
##anset
ligesom
##reb
handler
dele
pop
offent
pass
ene
##holde
##pper
##ack
lokal
aar
syge
dri
forud
kil
##kort
##ph
##ative
##linger
arr
##use
lokale
hvem
imp
leder
vest
##agra
cyk
hurtig
##lingen
##oven
sor
##ris
godk
derefter
skær
service
minutter
co
fly
##itter
skrive
##ban
seks
uanset
##tiver
oven
organis
resultat
##aven
##com
eu
samlet
pik
##bru
nemt
##sd
død
##menter
##tel
tøj
rød
top
gjorde
##arbejdet
##deling
##ods
##ligevel
disk
byen
##følge
ganske
politi
lejlighed
##igheder
hvilken
alligevel
danmarks
forældre
##gene
køkken
##stat
søg
køre
rigtige
tran
forsøg
##ologi
##ftig
##stitu
jord
design
nå
billig
forvent
ses
##eten
##hen
prøve
måneder
park
dom
##lende
##uddann
løn
verdens
##oen
alene
masser
##he
##står
bid
mot
bef
nettet
uger
##lik
data
beste
mart
##ension
læge
enten
##mark
fa
##sætning
ob
indt
sprog
kræver
alder
søge
fejl
medlemmer
cm
tidspunkt
situ
mat
##1.
konkur
aftal
region
##sels
##ævn
##erede
##da
##cept
hå
##sætte
sil
udford
mag
##sport
klass
##blik
##uel
um
græ
fisk
artik
bal
##ful
##ht
##pport
nøg
vælger
##yttet
penis
indenfor
##varer
simp
##ktur
##lo
part
udg
##udover
kommet
kender
##gifter
livet
test
ejer
særligt
indlæg
nav
##abler
privat
freder
ex
regist
social
sidst
post
##bold
tviv
##hør
##....
##dition
we
##stem
historie
##sætter
##center
##icin
niveau
##ningerne
behand
gul
##lin
bræ
lade
hverdag
##givet
##ænger
vejen
kæmp
##ons
tor
jeres
##grupp
##uer
##tiden
spiller
åben
drø
##ile
##uter
dren
eget
ha
ac
ford
stille
uddannelse
prin
ønsk
ko
dyb
##bat
tjen
hed
univers
rom
##her
anlæg
ryg
internation
##ium
udgangspunkt
mobil
samfund
##taget
##værre
24
##ålet
gav
produktion
enhver
græn
smukke
##ogn
ske
##bud
##ond
##stræ
##uelt
dec
information
forbed
##skri
vold
fundet
støtte
il
##ærer
##uss
##ynder
dis
##mand
deltag
fyr
##lys
##kommen
blog
yd
##rup
ferie
sidder
lære
##hand
sætter
##yng
smag
typ
imod
hund
lø
of
fj
bryster
seneste
##ell
gud
rent
desværre
lyd
begræn
##holdt
##ommen
medarbejdere
he
sjov
##jylland
sør
anvendes
foreg
##frem
popul
blod
##føres
sal
comp
car
##isten
inst
lag
##æd
##produ
##to
##fil
##retning
nation
ønske
skriver
bestemt
rå
##yse
væg
kunder
mør
højere
##ært
fug
##iddag
opr
egne
ens
farver
tvivl
##fører
##løs
ho
tilg
spise
gået
4.
opgaver
akt
vægt
foran
ifølge
lande
områder
slags
tilfred
velkommen
bred
drift
karakter
rum
procent
##tighed
199
præc
##elsk
yderligere
regler
##på
rele
till
##mæss
##ales
afslut
barnet
aarhus
##aller
lar
##drag
##ose
##leks
mærke
sek
##affe
##ink
fakt
ark
##øjer
log
40
tænke
##olk
##skrift
restaur
arbejdsm
bur
høre
hjælper
2,
oplevelse
bereg
##ygt
sep
##irma
##ill
tysk
ær
politik
##ore
##hånd
billede
landet
spille
##atisk
proces
##bog
udstyr
uds
kolle
##minist
håber
##følgende
profession
##entar
internet
##berg
repræ
særlig
prim
køn
##uar
##esp
mask
glad
utro
go
formål
normalt
skrevet
sport
##kr
værd
hvid
mangler
lærer
##endelse
amer
dejlig
##høj
sociale
kommunik
##mon
sw
komb
##ations
virker
##væ
##bart
forn
fandt
selskab
##hjæl
##akke
givet
tvær
bestille
##anlæg
okt
erfaring
##anger
motor
ansøg
##nende
hensyn
borg
centr
stod
medicin
naturligvis
##gte
bygge
##ober
kompeten
består
##råd
##leve
træning
kærlighed
alvor
sort
##assen
sæd
##mail
venner
##aner
nærm
skr
ero
##bjerg
##pen
aktiviteter
##2.
##aske
øjeb
##gift
##ceret
##holm
##kkende
forslag
##givning
vinter
forklar
året
##tende
kold
endelig
apr
funger
aug
##esten
fat
juni
##vit
interesser
##jeg
rigtigt
egentlig
skov
føler
##50
intet
##kald
gammel
fint
sku
derudover
finans
so
(1
##gørelse
frække
sider
tyd
valgt
mis
etabler
##egn
brand
betydning
##elighed
påvir
##huset
snart
##gede
konkret
##rene
kol
overvej
##rist
blom
projektet
sæson
opnå
##yre
##estyr
øst
sket
2015
mæng
udsk
henhold
kører
følger
##uderende
møder
klart
reger
pæ
energ
##enser
opdater
##ælland
##ach
##ligheder
bemærk
2017
beskæ
mail
##dagog
betale
##inister
trods
##ksis
kryd
bevæg
##kn
##elsens
børnene
amerik
ag
fremtid
jf
no
begynder
##dense
aftale
##lejer
##ikken
odense
foren
januar
2018
særlige
stig
##ræt
evt
forløb
##lå
pres
##ftet
##vist
it
indgå
mm
betaling
bogen
hor
aal
vise
model
efterfølgende
tred
resultater
arbejds
##han
##øje
frederik
stri
kommunen
##rørende
tradition
##når
å
sa
##området
viagra
fremm
##vede
lange
##nere
glæde
sch
##ammer
engang
offentlige
administ
uddannelses
ka
inkl
##anch
tun
afg
##bes
##30
##offer
tæ
smer
##ha
priser
kurs
gruppe
##fors
ægte
nej
##za
##ylder
##apir
bord
##ionen
konst
beskriv
farve
##pligt
##ras
##tian
samlede
kendt
##2,
##bi
##tionen
perfekt
lide
moderne
feb
bade
abs
##teres
kroppen
undgå
fær
rette
##sættes
##udvik
##tens
##ømm
bad
##fin
begyndte
##hjem
##uen
planlæg
resten
aalborg
generelt
ur
km
usa
##igur
indiv
##visning
periode
val
pot
forfat
nævn
bær
gennemsnit
id
størrelse
2016
2014
hum
##gelse
øvrige
##sid
sammenlig
kend
##rat
la
udtryk
offentlig
ir
##alog
##ly
præsen
tænk
private
autom
bus
heldig
tænker
##oer
bøger
kroner
##vs
føde
opgave
succ
##anti
mi
##kra
modtager
kæmpe
resp
##gere
opmærksom
løsning
køber
beløb
løbende
nødvendigt
5.
week
##vin
##ringe
##ko
##ument
##mens
vækst
##behandling
bestyrelsen
varer
nuværende
mill
21
tilgæng
eksper
##agn
##års
konkurren
here
idet
hud
bekendt
time
##201
##man
ejendom
neg
##fang
stop
##ild
##stø
##ampe
##ylde
##unkter
budget
udvikle
buti
##udvalg
søn
##iz
fortælle
as
ba
huset
general
##tagelse
##kal
##ment
##somt
høje
##plad
##nal
ophold
##idlertid
##ja
tit
##sens
specielt
selve
##ember
artikel
behøver
rør
##ustri
##ian
voksne
bebo
pluds
personlige
##klub
##ages
fjern
fortsat
neden
detal
##ående
##mad
peter
sagen
stærk
tillad
2013
undervisning
invester
indb
redu
##tern
taler
##mellem
kvind
dk
##varende
kommende
glas
##værks
##værelse
virksomheden
0,
stykke
##essour
sygdom
gem
forsikring
jes
uh
gravid
##ty
##kre
ok
jule
##vare
##kår
gældende
kj
##."
##yser
ende
##abil
hy
##ebo
indsats
oplever
succes
nyde
individ
lån
århus
foræld
frisk
##ves
team
transport
åbne
##ins
simpelt
skolen
december
muse
port
typisk
##akte
##tage
fodbold
dejligt
vari
##ou
kred
##fort
fest
ligel
##bel
ci
herefter
spør
tri
praksis
##iljø
dens
skaber
bland
varm
holdt
##liv
leve
udn
universitet
skrift
fungerer
lagt
hvornår
sønd
retning
##ommer
chris
husk
gæ
bab
profil
23
cas
nov
tryk
krist
klo
ligeledes
skj
##gaard
imellem
bestemm
60
tilp
##eld
##ørs
eksister
frug
ing
##enti
overfl
##tember
##tier
overra
ændringer
marts
tant
##rettet
institu
##fic
optim
oktober
sten
dam
kund
##hoved
##elu
##feren
cit
pub
##,"
##obb
##jek
medarbejder
erhvervs
klin
##ørn
opleve
##eres
##tre
skol
fisse
hul
##bro
tekst
bort
venstre
recept
instru
##øjet
regel
sko
frivil
stru
pol
bidr
færdig
skyldes
sammenhæng
##værd
##mber
æ
afhæng
##ologiske
bygger
hom
##stående
type
højre
kæreste
erstat
september
klasse
krig
værkt
ph
studerende
##ærker
pædagog
##afil
##sning
mærk
smart
anmeld
##iti
##atet
strateg
kre
meter
nærmere
##skl
præcis
april
server
##deles
##ofil
kombin
##terede
cirk
lyder
##stændig
##okra
special
afsnit
##sig
hej
##oret
##hjælp
##sminister
##10
kendte
##ock
##ydelse
##ologisk
##fo
##reret
sød
starter
kop
interess
##plads
supp
ændre
fedt
##ovember
kraft
prisen
##peratur
vedlige
##ynde
##lemm
kateg
##resse
##abel
paa
##fuld
chat
helst
##eri
computer
ry
minim
familien
spar
##hav
##adet
klim
are
##ativt
udsigt
august
cl
spillet
osv
##forløb
##ancer
##gerne
blå
læser
apo
bank
##co
smil
26
##komst
tand
##ærkt
##sekv
weekend
3,
##fun
forbi
vejledning
november
##ppet
tilsyn
pct
sende
interesse
forestil
tot
hører
##isering
tantra
belig
materiale
##aster
omkost
kul
flotte
kontra
mening
almindelige
##fremt
patienter
patient
##inen
europa
handling
beskæftig
iden
##kræ
udgifter
mynd
##port
øvrigt
kirke
##dat
##gr
øl
##5,
tils
##sættelse
fortal
pro
vurdering
##9,
anvendelse
arrange
##alder
##vejen
28
oprind
kommentar
såfremt
oper
##arked
lør
##sj
##ante
##skole
##ement
##gu
lignende
antallet
partner
##-2
pig
vandet
vild
kød
##mask
##slut
##ail
##æring
##ømme
##jort
##sstil
pludselig
sove
6.
rammer
figur
##anten
##forhold
##ierne
påg
lækre
deltage
##forsam
##iven
##person
typer
glæder
mist
styrke
##ta
regnskab
spur
brænd
me
europæ
konsekv
arbejdsg
ændring
kons
mennesk
eksempelvis
dels
højde
måder
punkt
udelu
udf
27
##own
frit
ital
##iration
standard
##ektr
meg
##des
søndag
firma
##gående
vigtigste
afh
endda
fræk
senest
beting
aner
kontakte
effekt
altern
mio
lægger
eleverne
jorden
koncer
kapit
##aard
ressour
nødt
##1,
##ktioner
forst
##ape
##værdi
lørdag
brød
integ
##iel
##ygge
##tter
afdeling
##løse
##/2
##ymn
pension
stærkt
omfang
##olut
mal
##giver
pri
##beg
##splad
viste
gent
opfat
smuk
##virksomhed
##elen
udover
kaffe
kunde
menneske
burde
##ry
##ragt
vig
skil
##okol
hårdt
##uligheder
van
sidde
registrer
##årige
stol
plad
##tur
ufor
revis
##sst
##9.
##svis
ref
kg
anderledes
fine
22
char
lod
borgere
hedder
næv
hvide
retur
lykk
udviklet
overrask
generalforsam
na
pågældende
##hånden
##vidst
##ino
bon
##yttelse
trafik
dobb
##pris
##abet
udgør
forbrug
såvel
sandsyn
##tom
tegn
forber
udviklingen
has
ros
##imod
##videre
##viser
inspir
lægge
##arbejder
datter
##stillet
##spek
stem
undersøgelse
##valg
cialis
fyldt
##besk
vers
absolut
##øgen
oplevelser
efterhånden
hygg
pleje
pe
netværk
elektr
gave
##taler
##område
kval
sønder
##rav
##nov
dyg
##elset
øjne
##sø
##-)
symp
##splan
##rådet
købt
fremgår
generisk
sikrer
fuldt
afgørende
##kommende
sad
##ymnas
sven
##hn
former
sælger
cykel
##vig
flyt
brugte
bekym
situation
drikke
##vejs
inspiration
##jerne
yng
valgte
stress
langs
kli
identi
##bare
##stillinger
##ung
fyn
starte
nummer
forskning
##!!
forening
--
blød
##gæld
##ruar
ungdom
vedrørende
møn
udbet
dejlige
facebo
økonomiske
##aer
##ies
##mor
##kast
foto
sjæld
overfor
klare
middel
opfyldt
new
##try
fredag
heldigvis
ed
uaf
skabt
rejser
##cere
camp
##hæ
bilen
omfatter
##kor
##holdelse
huske
økonomi
kommuner
christian
endvidere
foregår
forfatter
baseret
##ægt
7.
lider
##hal
##ovens
genop
##blio
##iew
jylland
ked
##fag
kald
198
februar
guld
risiko
nab
forbru
gri
##ific
mik
##mester
skrev
populære
lager
##amen
##æde
væsent
gæster
afsk
##tager
mv
slå
##ids
nyhed
##ndt
##oplys
fysisk
##strup
hverken
dokument
bilag
radi
##ici
klik
pæn
grundlag
stof
udfordringer
##opg
italien
damer
grundlæg
##oces
lege
bund
umiddel
christ
ass
##kende
sang
##assage
opbe
princi
sender
##ice
tyskland
gift
##stemm
træk
øjebli
##smæssige
smule
isl
liste
rolle
##holdes
jour
san
##okost
deltager
øk
ør
sundheds
##0,
rev
musk
debat
møl
vælg
stræ
cop
projekter
udvid
por
kirk
mer
ansatte
prøver
stilling
;
strand
##system
dialog
sjovt
dre
træn
con
##endørs
engelsk
olie
potenti
indkøb
folket
##telses
startede
##foren
rim
dør
sof
nødvendig
dobbelt
tom
rengør
beret
##histor
starten
vare
internationale
eksisterende
udl
vidt
##arm
##ah
venlig
##3,
kong
tredje
##uk
##mænd
##ses
værk
##rere
##bed
perfek
simpelthen
##aen
fødsels
##ydende
sing
##mi
opbyg
besked
nøgen
##bæk
hjør
##domme
##ish
udenfor
juli
##hovedet
dårlig
kommunikation
røde
##fulde
##ton
gengæld
pat
bri
##tigheder
struktur
##udvikling
##rektør
almindelig
tus
facebook
falder
repræsent
hovedet
dækker
##ægter
unders
modtaget
svarer
øje
vinder
aktiv
forret
tages
bygget
præst
hotellet
gymnas
rekl
øget
##åg
formand
##iens
dæk
doku
##områder
##landet
hunde
##ugt
tanker
årets
sammens
født
fører
nogens
forand
korrekt
læst
søde
##ementer
##vante
vejr
##nat
tilstræ
interv
nøgne
automatisk
##edyg
##skrifter
forsvar
ekst
intr
##letter
ori
##ykl
videnskab
billedet
##øve
##ny
##ork
varmt
apotek
dra
##ase
nærmest
##rige
sendt
sli
##uren
ideer
elev
politiske
beskri
##eløb
##ilitet
##ydes
forker
foreb
københavns
real
##atør
##vice
økonomisk
##hv
##ick
##tt
indgår
magt
blomster
trække
##4,
ønskede
##usion
koster
papir
##kar
ringe
mund
jensen
millioner
##ætter
##8,
vansk
historien
##cel
skade
aktiver
197
udbud
køl
understø
pul
fork
bage
##proj
samarbejd
fantastiske
træff
##ness
døde
overv
##inge
mulige
visse
nogensinde
modtage
tillæg
##su
##oren
##th
godkendt
mich
##uddannelse
forsv
betragt
leverand
vilkår
program
##ødel
jens
80
##styrelsen
opmærksomhed
##5.
fleks
gøres
##rende
##estyrelsen
##delingen
digit
##part
tråd
straks
pal
##ilet
vidste
ånd
industri
##førte
tilbyde
erfaringer
##ron
personale
meddel
værelse
scen
næst
politiet
##orier
nødvendige
grønne
tilskud
##ix
forsøger
##urs
4,
spor
lettere
affald
overens
##dem
omgiv
anti
medier
rapport
thom
tilfreds
##stit
2012
temperatur
hansen
)
##smus
prøvet
turen
##ogle
##vise
fortsætter
symptom
8.
##atiske
roman
##mb
##imm
beslutning
##yp
bygning
##we
materialer
##gade
amerikanske
##amin
gre
rådighed
##olf
ansigt
##ktionen
modeller
kron
##fæl
neder
sjælland
opdag
##oft
markedet
fe
hosp
##afe
##3.
frank
videoer
perfekte
væs
lader
70
relevante
ug
##vest
landbrug
løsninger
omgang
kigge
indfl
##kser
primært
live
##bred
##6,
ww
sorte
##60
handle
##iste
##forening
flytte
muligheden
indbyg
##vl
##skilde
imidlertid
nielsen
frugt
daglig
##varme
konkrete
anvende
skar
##aktion
##skov
knap
forek
##iat
##anders
træt
##peri
ugen
##må
overord
leje
##ordin
mandag
##splads
##ission
voksen
##vok
dato
##park
##aet
##job
##bær
##ordning
je
##ford
betal
opskrift
enhed
ændret
initi
fyld
websted
swinger
strøm
bevæ
behag
##ænk
fremtiden
##nemm
fed
tids
maks
##.)
øver
##ragende
##slaget
tydeligt
hjerte
##bas
vigtige
##ski
##dene
arkite
igang
dyre
detaljer
2010
##æmp
ødel
hem
##4.
##poli
##vant
##yttes
##ette
hård
9.
forpligt
eval
støv
sna
##nene
##sliv
tje
tl
vildt
bod
invi
##somme
##iker
mul
skatte
##cl
mæl
tværs
trans
##dage
fysiske
grundlæggende
sukker
##slen
##ba
reser
tilst
uafhæng
##andid
##olu
##huse
skræ
##ærket
orienter
enor
branch
lækkert
##førelse
www
alko
##egnet
innov
europæiske
nøj
glob
sager
##stof
##ev
glade
konstru
nør
fællesskab
daglige
teen
elektron
##ros
##7,
manglende
all
parti
tilslut
pengene
overblik
udstilling
kursus
fremragende
##vender
##tages
##bek
##niveau
##igheden
kommunal
##ds
venter
batter
biblio
derimod
huden
##ity
tryg
tilkn
##eltet
##sprog
besøge
bevidst
##ong
møb
center
##orien
##sende
##entligt
henvend
bekræ
oversk
book
##estiv
##ash
##denafil
##vind
maler
##yll
##',
væsentlig
satte
##ude
mødes
resultatet
løber
fav
indre
##stemmelse
ledelse
##bolig
##ikt
naturen
sind
##isme
anbefale
kem
10.
overhovedet
præg
kræft
anbefaler
publik
henrik
arbejdsmarked
manden
skift
vedr
match
##delt
##rus
rul
ligge
pil
forståelse
vejret
##kør
lands
##ffet
##ines
##sby
hjemmesiden
funktioner
modne
##sch
vente
praktisk
personlig
salt
folke
øge
beskrivelse
vore
##na
##kkerne
faglige
##agte
kone
umiddelbart
##nummer
tilstand
##opper
guide
værelser
hænder
##/1
esbjerg
døren
minimum
ramme
##brud
løbe
##udvalget
historier
tider
##ssel
moden
national
vandt
##out
##enes
##phone
såsom
##ævnet
torsdag
annoncer
opbevar
wor
vejle
indholdet
tyske
tilstrækk
lars
støj
tir
frederiks
udelukkende
virkeligheden
##æder
alkohol
døg
##-,
##'.
kampen
introdu
brugere
##sex
relig
navnet
randers
sver
dengang
accep
##middag
##skær
skønne
saa
nævnt
##anc
natten
rasmus
grunde
##sler
sur
##rid
adresse
35
bj
##oll
mom
##kan
placeret
henblik
haven
føle
sagtens
silke
tænd
uk
eventuelle
varet
##40
restaurant
down
##delen
au
##åben
##pa
do
omfattet
grupper
kompetencer
##ral
##agere
baby
meste
##du
markeds
##ned
##mmen
chokol
?
2011
rådgivning
begrænset
syntes
##føring
analyse
afsp
##8.
##sc
plus
onsdag
adskil
##ømt
anerk
maden
drenge
forstår
##landske
træner
dvs
læring
##isen
sådanne
opstår
kontor
garanti
internettet
hørt
forhand
byens
##skolen
prøv
##hjemme
afv
pas
iværks
perioden
fart
##årig
kyst
##atis
højeste
byder
oft
##ael
fuldstændig
nemmere
betaler
##oplysninger
sjældent
frokost
hjul
personalet
håb
roskilde
##væk
mærker
politisk
indsam
hænd
##spar
ku
sov
udført
triv
##sorg
eventuelt
komfort
##hund
out
dist
dest
steg
skifte
##gar
forhind
fritid
wh
dags
##liggende
entre
##oplev
stemme
oppe
kast
bæredyg
dagens
peder
##6.
journal
retten
biler
fortr
##igin
skader
tilsvarende
attra
føre
nedenfor
##ake
##bord
kapitel
skru
tidligt
løse
forventes
oversigt
billige
kne
##gjort
tilmeld
2-
point
kunden
undersøgelser
skriv
fo
brun
åbent
utrolig
##lings
interview
angiv
pan
hovedst
spare
gennemført
##leg
hil
##ektion
##smæssigt
benytte
personligt
problemet
repræsen
spej
##bor
spillere
reglerne
udgave
##have
##raft
##udstyr
##slin
##7.
faste
toilet
##siden
stigende
lukket
forretning
udfordring
##gangen
hemm
##enten
organ
sommeren
interessant
tjeneste
nede
byr
gulv
trin
fødselsdag
udgivet
##undersøg
eftermiddag
##atte
fab
naturligt
##forb
levit
filmen
##værker
##punkt
oftest
##mål
##ulering
bol
##nævn
##ware
fund
##progra
organisation
anbefales
defin
grå
##ament
##kred
##ight
dræ
levitra
tank
##oris
følelser
sygep
spis
stykker
annoncen
##dik
naturlige
adfærd
foretaget
kørte
bredt
praktik
kolding
##onen
##former
##rapport
udarbejdet
ondt
ger
##hi
gæst
fleksib
slot
spiser
jagt
faldt
(2
vende
rob
passe
ner
æld
søren
max
andersen
##stitut
##gra
##ppor
##agne
ender
indflydelse
smukt
bold
##delse
tirsdag
fremme
##olkning
google
værktøj
omkostninger
origin
##ikkerhed
hid
##rak
status
fan
##film
tim
leget
tænkt
air
##oo
kende
tlf
minister
digital
værdier
begynde
stærke
jac
link
litter
hvorefter
diver
##ition
##pladsen
##egår
##olver
##itte
arbejdsgiver
begiven
grænse
29
rut
ansvarlig
skridt
klima
sav
effektiv
præm
relevant
fjerne
dårligt
levering
aktuelle
my
##fred
1/2
90
ansat
afgørelse
##ec
koncent
kalder
##oster
konfl
kamer
stiller
parkering
##telsen
klubben
lavere
sne
vent
##tic
metoder
udtal
kart
designet
undervejs
mindste
arbejdsplad
forbundet
niels
##orten
røg
jern
foreningen
##ls
ep
fu
fæng
vider
##serv
fordele
læder
spørgsmålet
tend
fortalte
##sede
jævn
##kab
låne
##ith
derved
##ætte
##ødet
studie
fortsætte
rek
levende
##lex
##dannet
formålet
##inden
sverige
dets
bygninger
maksim
forbedre
##penge
regering
##ogne
amatør
centrum
##rit
tekniske
grader
danskere
##ars
ansøgning
##kaldte
##ssystem
##dyr
øjnene
midler
##als
##øjelse
##enh
seng
lykkedes
##mag
rus
vilde
priori
##oppe
##tog
heraf
##viden
gives
ræ
##ame
45
tabel
abon
konstant
##uet
veg
søvn
muligvis
##api
forårs
diverse
udarbejd
##aktivitet
version
administration
ekskl
skete
køret
aflever
##værket
pakke
camping
##kost
mulig
tænder
vinde
thomas
free
pga
pc
com
stabil
toppen
peg
forlæng
mid
5,
##anke
##mæssige
vask
medvir
##orte
ledige
eksempler
jap
can
##ffer
##asc
interesseret
##skon
##sjælland
avis
emner
##gruppe
fler
forebyg
##pt
direktør
fornu
brev
mængde
mur
syv
åbner
bir
kommunens
ill
##nævnte
##drer
elsk
od
demokra
kunstner
##veks
sælge
vises
##nerne
forkert
art
tingene
opstå
trækker
##gøre
spurgte
kaldes
##amm
##haver
stre
udvikler
sættes
morgenmad
##betaling
landets
##vokat
hæv
sjæl
install
kontrakt
##riere
tj
##sætninger
konstater
##ual
##arder
3-
##tilbud
hente
elementer
renover
afd
hånden
hensigt
virke
##spoli
##ested
metode
graviditet
##kont
mødet
favor
##ofilm
##ytning
kob
motion
søl
afstand
##hl
udlandet
##bane
programmet
formid
bind
not
konkl
oplevet
##fi
##sej
hertil
overskud
fru
##rebet
kredit
involver
anbefal
begyndt
butik
downlo
svend
:)
gyld
praktiske
tå
beliggende
sprøj
##ancen
##sy
placering
bange
viborg
##institu
tiltræ
##ernes
bjer
##sa
band
##steder
helbred
dreng
slutningen
##peg
john
##terende
lagde
bra
holdet
foretage
##piger
sags
cre
stål
undervisningen
##sag
##eu
##gørelsen
ejendommen
stoffer
##inget
##able
museum
vester
##fisk
held
middag
##pil
##ari
klassiske
frivillige
eventyr
don
digitale
lun
kigger
dagligt
##mos
forbruger
##smål
tænkte
tiltag
normal
>
positiv
##ura
##kun
varen
vedkommende
hænger
##stedet
chokolade
cam
vaske
##opgaver
vivan
kendskab
##spørg
total
cafe
##organis
forsøge
kilde
##aser
##sområ
anledning
2009
orden
tilbe
vivanza
##otte
##lementer
##skriv
presse
handic
av
frihed
slu
##anal
bom
##fal
##kraft
##zz
foretages
skad
##kaldt
endte
tilbehør
util
beskrevet
ker
##ftigt
##sproces
dertil
##dy
jur
##stande
aftenen
ut
glem
stranden
##laget
grænser
spørge
kandid
begyndelsen
såkaldte
##læge
##slev
##kur
øjeblik
##etter
##mar
selvstænd
bestyrelses
yderst
##eser
akti
##mper
##vide
##ane
boliger
##iserede
##nement
spørger
##ekter
extra
##regn
johan
undersøge
##ningsm
behandlingen
fang
##ekn
butikker
klage
dav
##tekn
hverdagen
##ulent
rengøring
teknologi
udskift
##ump
hurtigere
gal
sendes
##vidt
lavede
##mæssigt
##seende
anders
erik
udføres
vejled
##appe
cirka
konkurrence
overbe
omstænd
skoler
særdeles
øjeblikket
fotograf
##ønd
sørger
udendørs
flygt
oph
##spor
løg
arbejdsmiljø
##ener
soft
årsag
skib
##tallet
omfattende
planter
sus
drømme
##celler
eksp
##ifik
##edrag
rol
optaget
symptomer
dybt
efterl
pornofilm
tillid
dokumentation
##fød
huse
nordjylland
stjer
ressourcer
opst
##ows
emne
mørke
sædvan
##tider
bunden
selskabet
dyn
galt
##skyld
udføre
cykl
opgaven
fulde
æb
##marked
kvart
systemet
sem
##tøj
myndighed
##lov
erotisk
martin
##ativer
##test
udbred
nyeste
hyggeligt
##dende
##holdet
##inet
##fart
##olie
##folk
##istiske
##forsk
##mene
repar
yngre
udstyret
kog
##hu
korte
talt
serie
købte
geb
afhængig
##inst
afl
erkl
##press
sørg
##vendt
overveje
nyder
regeringen
isoler
##stalt
##aterne
samtale
sår
fransk
straff
seri
##,<<
samarbejdet
##ometer
anvendt
tanke
##ensk
##avet
##bånd
langsomt
overnat
festiv
kapital
##lek
500
##ansvar
kb
:-)
##oss
konto
suppler
lind
sens
nærheden
folkesk
silkeborg
oprette
##shop
lufthavn
publikum
travl
bryll
194
nyheder
##omst
##appen
smør
underhold
ov
##ho
##eskab
196
aktive
veje
prot
klokken
opdateret
skuesp
nåede
udk
producer
bidrage
hvorvidt
præsid
##kommer
henholdsvis
##forbrug
målet
sjove
byer
prote
##ze
love
listen
aftaler
##ema
mennesket
##løsning
ligner
rabat
drejer
skin
##yske
produktet
medarbejderne
##ball
stue
##pladser
##rom
##risk
les
##eting
specifik
##jening
anne
informationer
##urdere
##plig
##sger
intens
udløb
rene
hoteller
##sproj
##aftale
enige
##elske
michael
##sek
##las
kræfter
##ca
vender
centrale
øster
nævnte
##ube
afhænger
udvalgte
links
imøde
##moder
foråret
beskriver
omgivelser
forklarer
driv
nærmeste
rettigheder
##foreningen
efteråret
##tikken
generelle
##skort
føles
##gård
russ
##funktion
solen
umu
lægem
unikke
born
færre
ri
mode
andel
prov
##bal
leverer
idræt
smerter
##bur
##ham
naturlig
##æb
opskrifter
##sløs
sørge
##sind
udst
kvaliteten
tø
gruppen
gennemgå
boede
gas
##ringen
hø
##klen
##spart
##ax
perspek
attrak
tyr
jesus
##utere
professionel
respekt
lyn
ægtes
metal
familier
bevægelse
##//
flygtning
##ones
##handler
##sko
kommunale
navne
##minister
##ligheden
##acitet
col
plat
##chef
legetøj
##vogn
##stille
årligt
32
##gruppen
##hop
implementer
købes
skam
kampe
kys
##nis
ip
##mann
handels
afsted
##oter
##ror
tips
planer
venligst
cer
professionelle
fylder
indstilling
##værelset
tilladelse
lid
diskuss
##pot
horsens
vinduer
konsekvenser
bre
forvejen
sælges
##struktur
##asker
##lid
virksomhedens
##elef
##timer
finansi
##asset
international
##lån
sub
milit
alternativ
teater
erotiske
solgt
inf
undersøgelsen
##dele
##edag
mødt
##famil
indik
uddannelsen
fit
##smod
central
fing
deltagere
retter
##side
##ømte
##00-
gebyr
skud
ekstrem
##kel
##irt
heste
støt
forældrene
##ign
hels
bevar
evalu
2008
stats
kørt
refer
##ektor
levere
tilret
##ørr
##12
pænt
overd
diagn
##ara
samfundet
kvalitets
nationale
##ior
##verden
kirken
søges
##kkel
institution
!
sygdomme
tilgængelige
banen
tilfældet
hyggelig
##ause
motiv
egenskaber
offici
##lagte
##post
positive
##møl
længde
##produkter
knæ
mester
forventer
##maskine
up
tilmel
##æs
press
##olde
6,
finansier
kontant
ii
enheder
litteratur
11.
sms
arrangementer
##riske
##klare
##bøger
hjemmet
terras
oprindelige
deltagelse
aktivt
klog
##inter
##rænd
xx
gi
golf
luks
mun
hygge
36
hær
fremmest
##hvert
##rænde
samtlige
orgas
udsat
amb
landsby
samling
troede
duft
##rejse
ødelæg
processen
balance
minder
følelse
nik
guds
fir
disp
vurdere
krimin
smerte
artikler
poul
besluttet
cla
billigt
pu
opfattelse
tilhør
just
##aut
##igh
##iliteter
##mindre
effektivt
frankrig
##pet
arm
akut
kurser
forbe
programmer
godkendelse
situationer
fornemm
##oblemer
##rækker
##mo
lægges
relation
def
num
##yttede
##ower
##yning
samle
registreret
##://
befolk
kraftig
tilfæld
parter
cont
tilføj
##80
falde
herning
<<
jacob
htt
helhed
##lægning
kommentarer
##frit
teknisk
ungdoms
sky
afholdt
fås
forretnings
try
##ferie
øjen
vidunder
århund
##sret
fødevarer
##rel
bede
##adem
beliggen
tår
##lægge
tusind
ramt
##15
##lægges
##smed
skønt
##sken
##iets
casino
gennemføre
slået
stoppe
##mning
fremstillet
indtryk
##ep
evne
kontroller
retningslin
afslapp
##ference
dækket
sign
you
fon
##lands
##speri
##itu
strategi
passende
lam
nødvendigvis
15.
##bygning
mini
midten
markant
årsager
tel
optræ
##ana
##pleje
tilgang
køkkenet
dim
##ftige
##æle
fremover
komplet
fordelt
forsigtig
date
elekt
##isterne
sejl
roligt
udvalget
teknik
motiver
##cyk
lou
2007
ordet
##synet
##byr
300
##oseks
##enhagen
##ume
bidrag
statis
leveret
ledere
advokat
##fund
serien
benytter
rod
##eng
kus
chef
forbud
##fot
grunden
thor
spred
##elefoner
svare
snakke
2000
ændres
##ruk
restauranter
12.
hospital
areal
otte
vit
tidlig
angår
snak
traditionelle
##ån
indg
basis
ydelser
halvdelen
bro
illust
tæl
frygt
udlej
konf
følte
##sku
mødte
norge
##.,
##prøve
##børn
##okse
bryg
rart
lavt
husker
##usive
anmeldelser
##fære
kyl
røv
væsentligt
klikke
læger
klager
levet
borgerne
##99
udlever
afholdes
##delinger
stemning
##con
forhånd
møbler
bornholm
intim
forhandling
mælk
##tor
sent
mangel
hænge
##ruppen
mængder
karriere
udbyder
utroligt
plejer
ke
tema
inkluder
##-0
lab
##reau
##firma
opvar
spir
foredrag
bestemmelser
dygtige
##førsel
dagsorden
tilrettel
stopp
75
##osti
##bestyrelsen
forventninger
##ka
akk
lokalplan
styre
skærm
##talt
##rof
kommunerne
lovgivning
havet
##ovre
33
##alp
##sprogra
info
almindeligt
##ktor
kant
##stjen
mørk
che
isra
indret
eleg
nået
revision
vurderer
##nr
##ørgen
iphone
kiggede
body
ryggen
##orm
juster
besluttede
##agement
håndtere
##række
videreg
sty
betalt
friske
præsent
positivt
tydelig
bonus
##ydelser
stik
faldet
##redi
skolens
kategori
munden
##udgifter
##ateriale
##elm
##ådet
mave
udgiv
pedersen
sølv
##fuldt
slid
##videnskab
31
##brød
##spunkter
tilfredsstil
betingelser
##ese
sigt
slår
##ld
hvoraf
etableret
pet
afvik
indsigt
kombination
##lund
multi
jesper
bagefter
gir
risikoen
hest
kalender
ovenstående
kru
hard
hypp
##smuligheder
##tiser
sommerhus
ki
virkning
svenske
indled
svaret
##fikke
kompl
ole
nyhedsb
stillet
forvalt
morten
##ammen
blok
hjemmel
larsen
spid
##sty
##urer
bryllup
benyttes
100%
arti
bordet
##ogen
udlænd
præsident
hjertet
copenhagen
kbh
##arter
landskab
ambi
bløde
station
anvender
punkter
historiske
##fug
vagt
imens
danne
klassisk
forår
strå
##sloven
kollega
aftalen
medmindre
samtidigt
kælder
##har
runde
##elad
spillede
##25
##grupper
ubeh
udtry
kompetence
indeb
fungere
lyset
tanken
midlertid
##teket
erstatning
ligeg
gangen
kaldet
deltagerne
mente
##smæssig
bekendtgørelse
##lemmerne
##skraft
lægen
laves
##aften
omsorg
bøs
##mærket
##70
##ace
mobilt
institutioner
gård
udseende
##sæ
uddannelser
anmod
konge
##vægt
humør
##kap
##enhed
årlige
##ni
##mus
##papir
##vises
##oth
udenlandske
##istisk
franske
##ox
slog
kines
maven
yde
sammenh
gavn
arbejdsplads
analyser
gæld
##ætning
gevin
velfærd
##omen
billederne
7,
uddannet
##sev
##spiller
vokser
afrik
bringe
befinder
oblig
dårlige
organisationer
bos
##stoffer
finger
berør
dokumenter
lyse
plas
tunge
værker
beskæftigelses
grønts
jørgen
havn
dame
datab
individuelle
##hjul
beskyttelse
##følg
position
##skat
##forstå
barnets
##oni
##rab
##ms
##go
##aliseret
jub
##saf
dages
planlægning
fæl
14.
årene
kaff
overflade
##its
stemmer
beslutninger
forbered
forny
gulvet
##service
fornøjelse
ynd
besøger
forholdet
hd
##kamp
ramm
##the
frist
pyn
webs
opkræ
bygnings
##ierede
fremad
bøl
brænde
##rektiv
##hr
13.
handel
##issionen
##yttelses
##dommen
herre
sengen
relativt
##igen
##stig
blæ
lært
##ydning
ideen
myndigheder
##tema
nysger
oprettet
##erende
socialt
##jord
##ivt
##anen
chance
##ordningen
##lene
##fe
pi
medfører
radio
##onning
behandles
imponer
redeg
lette
adskillige
kim
forr
##uft
##45
modtag
##apper
luder
foreløb
##server
nøjag
livs
forbind
kris
spring
##11
fiske
span
mette
##aten
last
linje
fremtidige
gumm
trænings
højst
##df
ægteskab
bære
hellere
størrelser
lyng
afslutning
##-3
##bus
##forsikring
##oritet
omstændigheder
tendens
sygeplejer
islam
yog
tilbag
dkk
ledelses
symb
trænger
integration
ældste
skønhed
loven
påvirker
##lic
foresl
mic
##hul
stim
vedligeholdelse
kørsel
pårørende
garan
rådgiver
forbl
plant
##valitet
rappor
seksuelle
himm
##ues
indgået
våben
bebyg
genbrug
195
homoseks
##ili
marie
oplæg
resul
behandlet
##bring
lak
investering
ændrer
hæng
valget
##kkelse
døgn
handicap
tha
kilometer
begrund
overordnede
fader
##alerne
##ias
##bevæg
avan
stede
deler
##getøj
##standen
tilgængelig
lim
rid
##melig
vels
væsentlige
##ony
##ejst
hind
##strøm
certi
##regler
skoven
dj
inder
deb
##aren
##ineret
ønsket
bloggen
ram
##demokra
angreb
sikkerheds
inspireret
helsing
##møde
leveres
##angen
bespar
vurderes
##centret
##alistisk
##åden
foreningens
værelset
snar
##handel
dokumen
efterår
enig
fryg
aab
christensen
mos
##vente
nøgle
ansøger
anmel
tilpas
identific
forløbet
##pri
##ting
##ola
herfra
åbnings
forelig
##formen
dø
hermed
gard
blow
idag
tilstede
##hvis
lærere
##essor
dygtig
forskellig
##rud
blad
forg
træer
arranger
kvalific
skel
##aar
sygehus
bliv
tw
holdes
øger
besvær
##jern
indberet
indeholde
skifter
##vention
rumm
##arte
##esel
tilføje
##deret
pladsen
##mu
send
##lemme
sold
favorit
ansig
dynam
mulighederne
nyd
##staltninger
bogst
##asen
øverste
##mmende
frig
brugen
##ellen
måle
opt
cal
atmos
fris
opfylder
##tiet
##eland
37
nedsat
##tiget
##træk
relationer
ventet
dans
unik
##pren
eleven
kære
foder
besøgende
##produktion
bekæmp
felt
pigerne
frederiksberg
indvend
##kat
angst
##ikere
##præsent
vælges
vedt
kunderne
mads
bevil
billigere
bjerg
sejr
##stal
flad
##estående
træder
bidrager
rens
##hvor
respek
kritik
rasmussen
##ruppe
kvinden
lykke
##90
psykisk
gade
andels
##ilde
##tv
værktøjer
##iness
synd
eksist
##18
##lav
black
##økonom
##telser
skand
england
kage
##fa
hr
kalde
formentlig
opført
badeværelse
##iør
20.
hunden
lil
##gøres
ventil
menu
opfor
forskelligt
gaver
##oper
biv
skuff
grundigt
lejligheden
våg
##tilling
beregnet
hidtil
prem
besvar
##eligheder
pin
##ænder
svag
16.
big
plante
hæld
##itz
##bruget
##haven
flyve
##mmeret
indr
gn
##ata
initiativ
##kasse
stød
møller
svarende
håndværk
##agerer
stu
##<<.
hårde
kompon
luften
tilladt
skyl
præget
hørte
ordre
pladser
mac
opv
produceret
wind
sortim
behandler
våd
spilde
##ønne
symbol
##kant
##komne
claus
stigning
rettet
påbeg
angivet
##politik
##och
150
gaden
tegne
##værkt
civ
irri
nabo
modstand
##osof
telefonen
beliggenhed
gens
specielle
##bens
frø
##projekt
##?"
anmeldelse
fugle
perioder
##cam
installer
island
##vent
##):
hastighed
stammer
lejligheder
rust
forum
hjemmesider
regne
##alistiske
wil
skub
parad
udform
arkitekt
jak
##edyr
##agten
lond
##tilskud
##dragelse
belast
ansæt
##elsess
forsik
udfl
##god
##hot
##umpe
flyttet
hent
lik
pause
##aks
indkomst
lem
afspej
fc
dv
paris
##entlige
identitet
befolkning
##lim
##mærk
##skende
overensk
lukke
look
nedenstående
kriter
##kvalitet
hob
midtjylland
kendet
##tab
modsætning
luksus
førende
##sled
34
18.
##kes
institut
opfylde
piz
jurid
virkelighed
køge
ubehag
abonnement
seværd
##bag
rente
etablering
##ævne
##proc
plast
##adresse
##muligheder
##æren
vik
##klæd
##sr
titel
samarbejdspart
##lyst
planlagt
veninde
svære
smager
tav
##ænke
sekret
danskerne
rimelig
psykolog
1)
anses
kreative
offentligt
##dder
thaim
indebærer
##anchen
lede
##edel
##adal
##inerer
træne
danner
##urop
kopi
situationen
næstved
indrettet
stået
##industri
sildenafil
drej
turner
forel
##att
##formand
lund
kurset
##ipp
frie
##kostninger
størrelsen
##cre
##valt
mek
talte
skærmen
engelske
##ica
stiger
##ejl
utal
amager
biograf
##che
herom
kina
ture
##utte
jørg
holdning
##veje
resultaterne
enkel
##inerende
lykkes
præcist
måneden
fortalt
##lunde
19.
##alle
skål
##eden
værste
bestemte
##købing
stolt
normale
eksamen
##bogen
##ding
##ændelse
##arer
##ulere
moms
betales
vinteren
diskret
##2-
sim
193
etc
##way
kapacitet
webshop
ryd
##drende
##strateg
single
omvendt
fragt
grønland
indretning
overalt
<
udkig
medie
show
bestyrelse
4-
tilbydes
næppe
trak
##indsat
##somhed
forslaget
misbrug
henvendelse
pligt
betrag
blanding
målrettet
tjener
kolde
priserne
##mest
stift
kab
eb
##sætningen
##spillet
17.
tekster
2006
bygningen
alvorligt
glat
selvstændig
##itt
demon
reducer
ansvaret
medlemmerne
lat
teksten
nic
weekenden
##ækket
saf
##kkens
hyggelige
måler
opløs
##varter
nørre
thail
indvand
xxx
svensk
reklam
bø
gay
kunnet
ordin
kommunes
bakter
søster
innovation
##sop
maria
##fold
##ya
beskytte
sandsynligvis
if
vegne
forhåb
lis
senior
##angel
inddr
##lam
aust
##vurder
tørre
blik
##visninger
rummer
butikken
##sborg
væld
##givningen
london
ten
varier
38
koldt
##kkeste
udsted
øvelser
ovenfor
190
##banen
sekunder
hundrede
begejst
kasser
siges
udvæl
##olution
##eladende
faktorer
line
##mæssig
færdige
##inav
årsagen
repræsentant
##bum
medføre
##bt
andres
specifikke
opford
##19
kerne
cd
reguler
forudsætning
##aktioner
løfte
kammer
cat
pok
villa
scan
endelige
##æstet
dække
umuligt
##tagelser
handlinger
##skr
div
talent
ib
svarede
##spe
proced
mobile
imponerende
fortsatte
vol
selskabets
##illerød
##pan
leverandør
bevæger
effektive
fyre
jakob
ethvert
##onym
thaimassage
##arr
selskaber
##aftalen
brede
vardenafil
bestemme
tilsyneladende
oplyst
##forslag
lukkede
helsingør
politikere
##sforhold
##alderen
8,
grav
##manden
beboere
1000
aftalt
skulder
sports
##adalafil
fede
##ama
##yge
##<<,
well
brønd
pap
rådet
påvirke
##uc
##inform
leverings
emnet
billet
livsstil
produktionen
##danmark
hit
##ips
halvt
tadalafil
kæl
##barhed
deltog
##uddannelsen
døre
jon
bul
grønt
systemer
##skrav
faglig
bærer
##skift
mærket
##lade
tjek
behandle
blomst
##play
##vejledning
græs
elskede
evaluering
knud
##stilles
verdensk
##sammen
staten
##billeder
##plade
##!"
##ats
foretrækker
alderen
flygtninge
overgang
thailand
##fyr
##være
milli
##erm
forskellen
lokalt
bevæge
vedligehold
##fyld
##stol
analy
tyrk
##ygg
ligeså
kvindelige
maskiner
fabrik
##kkere
trivsel
##ivet
sans
arbejdspladser
kylling
teori
forventet
sæsonen
famili
forandring
##??
2)
arg
enormt
introduktion
lytte
##anceret
psykiat
opbevaring
intel
##akning
dansker
sunde
##13
##icia
liter
##asses
stopper
præsentere
maskin
forsknings
rummet
formanden
##tegn
anbefalinger
arbejdes
færdigheder
omd
mia
kortere
slappe
vend
aftens
##gange
##vilkår
udvalgt
konflik
##etid
forklare
hader
##apeut
forsøgte
venlige
##osen
##ladt
##klag
undervisnings
uafhængigt
galler
##navn
opnået
fuck
acc
xtra
forsøgt
##sministeriet
##val
ryt
bibliotek
##beret
tryghed
oprindeligt
##14
ild
##ions
##priser
lesb
revisor
##rib
hust
recep
assist
magas
55
##sprodu
pædagogiske
##/3
objek
øen
fastsat
forstyr
træffe
værre
##back
bis
##aktiviteter
betyde
bringer
##iseret
##gest
front
##urt
imm
peber
spurgt
trend
##inerede
konver
styrker
##ination
##pige
indh
reelt
administra
kræve
mister
business
laur
forvente
åbenbart
gennemføres
##unget
tættere
##tids
bladet
arv
lyde
stuen
champ
instrukt
##emidler
ant
forhandler
relater
spanien
make
besid
##kede
overtræ
ægtefæl
aud
##ram
##edskab
##skaff
forskere
hverdage
forklaring
##16
##rut
##kredit
tabt
klip
##behand
##førelsen
iv
ball
kvartal
##agram
kraftigt
tilrettelæg
##az
gad
besæt
##dre
følg
beton
foreslå
##amet
hillerød
works
##data
##skal
##burg
milj
##pression
primære
slutter
herhjemme
swingerklub
##komp
afgift
virksomhederne
bob
poin
timers
##tidens
skive
stilles
perspektiv
site
brem
fødder
##sområdet
software
ledelsen
borgmester
ken
planen
nyere
##elter
udpeg
flytter
##ain
##rens
matema
download
fotos
morgenen
seværdigheder
fasc
##no
##17
travlt
fæn
elektronisk
##igheds
slippe
fugt
fortjen
tilsæt
artiklen
##rur
barnd
orgasme
kaldt
club
temmelig
42
peger
##plader
reducere
##jent
##put
tap
udtr
socialdemokra
fn
hænderne
48
turist
afsluttet
fremmed
nærværende
carl
austral
udfører
fremgang
##vejer
bedømm
læste
stole
understre
finan
##læs
varmen
vundet
svendborg
koge
ulov
virkede
fortælling
foruden
##itation
element
##ric
##selv
##ovn
21.
havne
historisk
##vandet
aktier
##æger
past
tar
kok
modst
garn
tjekke
trykke
http
tilhørende
operation
##retten
reaktion
##atorer
bane
vedtaget
førte
krops
##yster
city
glemt
krydder
personlighed
registrering
##smand
håret
bemærkninger
hvori
##afgift
##bør
tvang
##ængde
##ferencer
brugerne
patienten
festival
65
2005
##gelsen
konsekvens
##osition
kas
##dagen
vm
gru
enkle
beder
skriftlig
##ografer
dekor
##komme
kortet
##slet
sogn
alvorlige
uheld
teknolog
##ulation
græsk
##handling
afdelinger
##ood
brow
##kender
lokaler
noveller
ønskes
kæmper
bager
gider
400
fremhæ
boligen
entrepren
ordentligt
årige
redskaber
##ppen
##emed
dru
sendte
kategorier
##,-
##rul
dukker
high
##ygdomme
læsning
##sniveau
energim
studi
eventuel
finansielle
apple
understøtter
tablet
rækker
byde
inten
##ædvan
opfølg
eksperter
euro
##lement
##kend
opnår
##etræ
miner
##200
fagligt
##acc
udbetaling
arbejdede
fitness
alm
rige
efterspørg
lug
ton
gran
advar
ejendomme
arbejdsmarkedet
dild
##ysning
##rukne
power
befolkningen
åbnede
blowjob
##rette
##rød
købet
##bøl
afs
klæ
##revne
betragtes
cv
glim
slagelse
fylde
holste
såkaldt
bøsse
pool
tjene
##løst
terror
##undervisning
arrangement
støtter
##dres
speciel
nævnes
udnytte
fredericia
nordsjælland
separ
##ani
lic
appar
ført
##ena
mes
##smøde
gro
##ablere
##dæk
##estemm
kollek
måltid
bio
##kortet
musikken
##rupper
##klasse
##svæ
##serne
fare
cykler
mængden
dejen
håndbold
samtykke
kamera
##ofte
1:
##mærker
##kninger
ekstremt
##iget
##pas
oplysningerne
##sender
##ognen
##stiller
værksted
##bund
##vejr
##-201
bivirk
betalings
##livet
##sninger
velegnet
overraskende
adres
paul
ops
oplyser
##bygger
tilfredse
oplagt
gennemgang
udvidet
bukser
##sland
fulgte
tilh
##givelse
evner
sundt
retfærd
##punkter
vanskeligt
kræves
flyttede
bestilling
koncert
økologisk
fjernet
udsatte
##oplevelse
##næst
berlin
sørensen
opfyld
times
arter
udgift
##ejer
samtaler
jørgensen
øre
##undersøgelse
vilje
glæd
##melt
##skade
drømmer
udbytte
##rien
##lip
marg
modul
behagelig
samvær
forholdsvis
fornemmelse
århundrede
storm
hurtige
grøntsager
intellig
vendte
##jyske
##rator
ekspl
invest
##tit
religi
##proces
præsenteret
##older
centralt
##aus
##ografi
herudover
søgning
båd
##otter
##stid
##jæl
nøje
brugeren
overvejer
##va
##perioden
statistik
ern
kolleger
##ley
##blad
##75
##auff
##ssam
##bladet
##fest
sange
kontin
vokse
brænder
bevare
stiv
flest
##vers
rock
##ostitu
diam
##yb
frækt
##regning
ankom
##arch
miljøet
(3
filosof
39
markedsføring
afstem
##følger
beskæftigelse
samarbejder
baggrunden
with
sexet
kondom
##umer
grundet
usædvan
##vækst
##bad
tilstrækkelig
##tikler
borgeren
tilstrækkeligt
##fac
##elin
solid
bestående
diskussion
foreninger
bestemmer
forudsætninger
york
##etøj
loft
##isser
benene
ig
##lejen
##ineres
fjerde
håndtering
##unt
##byen
##iler
00
bivirkninger
tredj
eftersom
##behov
okay
snakker
##ægler
##slovens
hellig
##ksen
grill
erhvervsliv
##miljø
##æne
mission
trukket
##tikker
drive
##biler
##tning
##rad
opskriften
tilmelding
hjerne
sortiment
##agerne
##spolitik
##ejser
kug
helle
besøgte
fremstilling
##ika
##asken
##ftelse
charl
webcam
##tagen
udveks
bedt
##-10
skære
indendørs
faciliteter
##ilæ
aps
skarp
pre
huller
fødevar
løst
sektor
spons
retningslinjer
fløj
løft
##loven
havnen
mg
##skoler
##hel
##kj
##start
internationalt
reserver
shop
##redienser
kos
prøvede
##tør
hjernen
kaste
##værelser
192
signal
##ww
stj
##estere
desto
nordisk
ekstraordin
dækning
indtægter
kors
##planen
kontakter
kusse
##tekst
interne
copyr
videok
forestille
kristne
takt
##egård
##givende
kartof
begivenheder
oplysning
##offet
billigste
##slå
##sfri
lød
horn
skriftligt
##selskab
hjørne
##læd
startet
beskrive
forbedring
flertal
back
##bringe
forholde
##fly
lol
##udb
lyser
tempo
##kontrol
##ystemet
##ini
negative
##liste
bist
finansiering
##øen
10,
dyrt
protein
indgang
overordnet
##ire
tæller
##spænd
personen
##cipl
copyright
##kendelse
angiver
uen
rusland
holbæk
maskinen
##spunktet
##lægger
etablere
##ision
derhjemme
berømte
vært
princip
stærkere
pornost
##eservice
byggeri
him
vogn
bop
##skifte
valut
minde
milf
##mentet
##vens
processer
tip
##umper
modsatte
##skol
31.
##regnes
cor
##anne
bøn
int
indsatsen
ansigtet
skuespiller
##annon
sikret
eksperi
##kunst
damp
##italet
##virksomheder
##rummet
følelses
interessante
afhængigt
bånd
tilknyttet
##skrevet
plej
dir
fjernes
officielle
amerikansk
##bank
drag
##sikring
opp
##anvend
##ita
tillader
nordiske
påbegynd
klogere
fattig
rejsen
fisker
dernæst
mak
klinik
hurtigst
generation
ogs
##vning
pigen
forlængelse
##afdeling
lyngby
5-
##appar
9,
##øven
nylig
##repræsent
prop
##linge
rejste
kjole
børns
##arn
##legetøj
skiftet
##ænde
pizza
beløbet
vindmøl
ingredienser
##maden
indblik
##amme
annonce
1-
almen
arrang
kulturelle
ap
##ørrelse
regner
prostitu
tjenester
overg
stjerner
##aste
ins
menuen
##aret
##bon
##sbes
##oller
tax
million
forsvinder
gammelt
kandidat
rapporten
temp
##igere
##tagere
grænsen
bortset
fulgt
30.
uly
##viste
opslag
##landt
akadem
##atiser
##omet
nævne
refleks
vision
bevis
##speci
##mat
##kons
##abelt
##visende
præsentation
##profil
comm
##ksomme
driver
inds
##smet
2004
sygdommen
tynd
derfra
##gul
modtog
klubbens
matematik
koordin
aktion
lejer
behovet
gæsterne
tilknytning
ve
planlægge
arealer
tast
væske
samler
##ysk
formiddag
klassen
koncentration
tilt
mønster
##parti
gennemsnitlige
anna
##møn
forhindre
##fab
##ote
kode
fokusere
##ada
kilder
##/0
##alske
ovnen
##skode
takket
ost
afdelingen
voldsomt
øverst
##sområder
skandinav
43
kro
##egang
slap
høring
flyver
vedrører
support
vestlige
##usiv
åbnet
boet
betød
##dc
pande
spildevand
play
##--
verdenskrig
initiativer
harmon
redegør
henvisning
holstebro
##tiger
##ektet
##kri
perman
sammenligne
##jet
drøm
##ano
dvd
økologiske
##lager
betegn
feltet
##:00
##centre
niveauer
uret
tøjet
master
rep
##500
##iej
terrasse
alex
##kø
##æret
son
foreløbig
konsulent
religion
##afdelingen
##løg
##betal
minut
samleje
renovering
##kørsel
amt
uover
liderlige
fingre
##prom
grin
bolden
##www
vant
##program
##cher
årsregn
scor
potentiale
##jorde
sekund
##bid
opkald
anlægs
undgår
indtast
##seks
pisk
david
krigen
leverandører
##alisme
rute
##indt
##æves
##beskriv
erfarne
##egner
vib
fange
##stekn
skaffe
kvad
regnskabs
dm
korn
blade
engager
forstand
undskyld
hovedstaden
direktiv
ressource
##ømmer
##spekt
ligefrem
##rigt
kvinderne
180
greb
##result
teoret
ec
slank
originale
##/201
global
menstru
nerv
##iks
tol
elske
##95
professor
nogenlunde
trump
svømme
egnet
radik
##træning
alvorlig
samtal
aktører
fase
vandløb
windows
skjul
##lær
katte
dann
følges
mega
##ladelse
##svej
##muse
forvir
eksport
megen
##ælde
firmaet
omsætning
arbejdskraft
##personer
begivenhed
himmel
kasse
44
gården
fængsel
singler
overvejelser
##si
afgræn
opgør
##ålmod
gemme
henvender
flag
##kkelig
miste
anlægget
sikkerheden
##avisen
liderlig
##unge
25.
repræsenterer
##merende
domm
domin
eksterne
ydre
studer
steget
##alsk
##ites
psykiske
22.
orientering
spørgesk
scenen
##vo
vokset
organisationen
producenter
##bert
atter
forlade
##ona
##gave
konflikt
##midt
##sket
gader
hug
##øret
wellness
##point
uddy
flyg
##pul
##elovens
##status
yo
knappen
tillige
##ødning
##ekl
##ektioner
##rr
væggen
gule
placeres
modellen
##ågning
oplevede
blandet
erotik
##ule
forelsk
bryder
hustru
israel
##fikken
world
berettiget
spl
krise
spiste
globale
tyk
##kendte
##regist
##omi
one
vag
##ioter
##egaard
populær
drama
regionen
##yper
##kir
folketinget
senge
undersøgt
leds
opb
##øbt
##iteten
##aps
##user
##esen
cr
farvel
præsenterer
##eringen
##historie
##shøj
##ualitet
atmosfære
kombineret
##24
dyrke
##ykning
lukker
##phones
stående
sammenhænge
##sekt
betragtning
russiske
forsy
anonym
uforpligt
redskab
kolon
##rim
##fyn
betjen
##cks
fakta
optimale
opnås
stemm
slipper
døden
producerer
##institutioner
virksomheds
offentliggjort
##otor
mistet
bredde
mc
frost
##problemer
hvorfra
##install
##kendt
smagen
studiet
nul
##ics
##rerer
fradrag
varighed
produkterne
brud
simon
læsere
##cykel
hvorledes
monteret
interesserede
##orter
hilsen
##ux
ryger
overenskomst
##bestyr
nytår
simpel
##rin
statens
konkurrenc
##samling
##atoriske
benz
##sforløb
netværks
46
uforpligtende
##hvad
certific
feri
##kultur
producere
flaske
meddelelse
varsel
størst
engagement
fundament
##ensborg
civil
forekommer
patter
##ædagog
ekster
##ente
##billede
totalt
opfølgning
plak
byd
investeringer
sexy
pus
##tiker
##ræk
##assist
hæk
##ctor
##olig
afpr
##piller
søen
##idig
hovedsag
omhandler
muslim
ekspert
muskler
produk
##una
##berne
argu
svamp
rolig
bragt
ordentlig
menneskelige
knyttet
infl
smarte
##urening
portræt
sammenlignet
uv
##osis
arab
netto
##sløb
fødsel
dal
mys
##iserer
forskelle
børnenes
løsningen
overrasket
principper
##tjen
##foto
frivillig
forpligtet
elegant
behageligt
konserv
##hår
beboerne
regioner
underholdning
##græn
annonc
jubilæ
ansættelses
levetid
bopæl
stadigvæk
producent
computere
repræsentanter
##egen
##box
ot
##uleret
bror
hormon
sover
##rop
##-/
##ii
modsat
andelen
betydelig
pt
bang
kræn
tilslutning
##orator
titlen
mog
studier
bach
##areal
klit
indstillinger
gram
inviteret
straf
enestående
##wa
##prisen
kam
mundt
##forsyning
250
##dags
##pakke
##ath
##besøg
##dansk
udvide
##cerede
foreligger
stab
##sser
uro
hvidt
udenrig
##fru
julem
##etten
ulem
##cm
##plej
##bragt
##alisere
##ffen
kunstnere
24.
tabe
##vask
bygges
##ial
##elever
email
individuel
konfir
##aftaler
klubber
stillede
koncep
fantasi
hyl
kritisk
##smænd
##gennem
##istens
##ns
##ledet
diabet
##1)
forrige
##time
kongen
gemmer
vægge
komprom
##!!!
acceptere
##ophold
affil
investere
coc
smykker
udarbejde
telefoner
hval
ligegyld
workshop
##ræts
interessen
installation
optag
##teren
kvalifik
##rejser
##ræning
fravær
afgørelsen
trygt
synlig
##ius
##medlemmer
medlemskab
##ye
iværksætter
fad
##lerup
##ffek
##askine
computeren
planlægger
savner
##massage
##ferien
##tm
fysioter
forsigtigt
##fløj
##iseres
nett
fremstår
##artet
klø
sgu
nemme
##indhold
forebyggelse
##talte
integreret
##ney
##tika
bevægelser
årig
##inci
designer
betydeligt
forventede
foretager
opsig
spænding
rosen
hæve
##inerne
sammenhængende
materialet
##andens
##opping
observ
piller
beregning
23.
værdien
arbejdspladsen
liggende
studenter
anført
dire
##anerne
derude
parterne
##typer
pens
usikker
madsen
fremtidens
##gmail
stjerne
##ledningen
henvises
kompleks
kloak
##bordet
mølle
længst
minutters
##konstru
kontrollere
udstillingen
tilføjer
generel
udviklings
##gl
##/4
##baseret
beskrives
sperm
##meddel
1,5
afklar
datoer
##væl
##parken
udsalg
ydelse
mobiltelefon
##meter
##tions
ejeren
1-2
knu
##kær
##sbet
jobbet
kryds
bordel
##plant
##ografiske
femin
##uret
doll
understøtte
term
##ukker
overlev
udvend
##holt
opgra
bevidsthed
##creme
##ursus
drifts
byrådet
##oplevelser
tyder
roy
styring
svin
pædagogisk
##sleder
##usen
slik
farven
skrædder
##domm
##periode
kampag
unikt
partier
afslappet
##indlæg
##cca
hjemmelavet
##cit
##fod
##ismen
your
spist
##ækken
kundeservice
##yer
belæg
##planer
italienske
tat
##sevne
##krav
individuelt
##ografisk
fastholde
##do
bibel
gear
fænomen
##regel
foregå
dep
farligt
klarer
britiske
forandringer
bug
##stige
bryde
kalk
album
plade
indsatser
indledning
##eliv
sædvanlige
tøm
fanget
##havet
komplic
##jo
etableres
##kode
##shed
2018.
presset
##øderne
##yndighed
kanten
##fast
hi
##car
holm
blond
##ran
sandt
simple
salat
kejser
ambul
##ordninger
strid
konstruktion
##sbil
begrebet
guid
supplerende
##gebyr
udbredt
returner
fastsættes
fold
ændrede
fuldstænd
##information
##branchen
holdninger
barndom
smide
,,
##andet
karen
but
smage
##kte
neut
old
arkitektur
forpligtelser
emil
logo
døgnet
pers
mekan
##umin
##arealer
had
maskine
potentielle
udskiftning
tube
##ægte
barne
renter
ekstern
børnehave
emp
etn
afbr
lyden
sluttede
ære
ikon
glemme
forfatteren
målt
##agelse
delvist
kravene
kommenter
##iche
mangfold
##wh
afsæt
##analyse
fjord
##forløbet
smukkeste
##sper
bød
creme
##systemet
værelserne
##ingerne
##chen
styrket
nom
forfærd
##ex
begreb
28.
herved
##35
ophør
##eled
strikke
##ging
liber
sving
##hyd
uld
12,
##visningen
sammenligning
##rest
ler
evaluer
gevinst
stillinger
hov
sorg
taske
depression
forbehold
opmærksomme
##oriseret
populært
27.
bla
ent
oplyse
tegnes
..
##spligt
beredskab
##pension
3)
##eler
kabel
træningen
hjalp
accept
##smidler
opstået
tidlige
##faldet
##mennes
iværksæt
forhåbentlig
instagram
##65
##sselskab
ond
##feltet
involveret
ub
tilbuddet
flydende
##hotel
batteri
##ribu
gren
bent
ultim
discipl
##unk
kaj
##middel
##pad
##oværd
##bureau
hjulpet
##lok
branchen
indbygget
jordbær
##sson
fiskeri
cap
fond
##læggelse
undtagelse
louise
##gers
##krig
26.
vort
##sbeg
lolland
æstet
skabes
skyde
lægemidler
overfladen
behandlinger
public
bestilt
##give
##ynet
pakker
services
##landsk
koncept
tob
danish
soldater
næse
unød
##ames
##forslaget
forbund
vurderet
legal
ventede
indi
tung
##reber
##skilt
##industrien
marketing
beslutter
##ray
mr
##sperson
feed
fur
skrå
klasser
##kage
selvstændigt
tall
elevernes
##log
47
dybe
##medlem
##sområde
optimalt
ride
2003
fjernvarme
gun
##stiden
micros
##oppens
kanal
tour
##tigheden
desser
banken
arme
va
branche
##ico
etage
##smag
tegner
##verdenen
vine
beboer
tide
##kommet
trekant
forekomme
udlejning
##skel
##trakt
hentet
museet
udskriv
konting
##rapporten
køleskab
rense
uend
sværere
##institut
##dist
##2)
browser
##boliger
udp
hhv
dommer
optagelse
##evne
##yste
##sprogram
##4)
ryst
dokum
##uch
##ora
##ummer
poly
sønderjylland
##disk
website
fortro
norske
fremmede
jævnligt
##ændringer
opsætning
urin
konkurrencen
scene
##fj
##vidste
komplek
##lege
##virkning
nyhedsbrev
##ima
reklame
bomuld
##sud
sogne
tilfredshed
dybde
samlinger
##gener
##habil
##eskabet
brøndby
##aminer
træffes
stige
##hun
##bekendt
hukomm
yoga
##ensation
##hvil
kniv
sikres
##erings
##esteder
85
##sgaard
koste
##viv
phil
nøjes
faktor
gennemgået
aspek
opfordrer
begrænsninger
##yrer
halsen
kommerci
praktiser
glemmer
skabte
diff
anmodning
green
est
mandlige
mors
høst
52
gemt
##rob
##stad
broder
##uddannelser
##ptur
cool
male
slægt
oversku
sparer
afholder
hjemm
levede
fokuserer
måneders
##midler
gyn
##anken
vendt
anbefaling
sprøjte
korrekte
gig
##astrof
tilpasset
vedvarende
professionelt
foruren
karl
charmerende
##teste
motivation
politikerne
emball
##ttet
omh
udfyld
fødslen
arkiv
transpor
##skont
beskytter
medlems
rigeligt
elektroniske
opdaget
indført
##nor
påske
spær
bygher
ovn
videos
put
will
kartofler
seksuel
##ulenter
##valtningen
##ams
dennes
11,
optimal
tegnet
##ulære
##gården
sexlegetøj
faget
sved
##små
væsen
henviser
udarbejdes
kristian
tilpasse
risikerer
ærlig
##markedet
##-15
ydes
tilber
##dren
træde
kriterier
specifikt
forkerte
princippet
##ampen
##pine
tomm
##svæsen
##styrke
kilo
##enting
analys
##rerede
kontanthjælp
##ao
bakke
skuespil
yout
hall
udfylde
##agtig
strip
120
##ots
##brit
##oph
##oppet
##geren
##ture
kommissionen
##højde
lover
herren
veninder
fair
sydlige
##sbesk
alarm
kærligheden
danse
sikring
thi
eva
beskad
drikker
hk
aspekter
dronning
##pperne
produktions
##..."
##sprocessen
nar
haver
forstås
bh
##skema
opdager
restauranten
##foreninger
##omkostninger
sul
##okke
resterende
sta
##venlig
ringer
##obe
reduceret
milliarder
revi
forkæl
vr
rose
##rådgiver
##sdat
##estol
testet
##øvet
lånet
læses
regionale
spin
sandheden
##fit
##aming
klat
##maskiner
snarere
udgangen
fans
bam
##1-
lærte
træet
afsked
spændt
dildo
tdc
påvirket
##iseringen
hjemmefra
journalist
forsam
tilføjet
oli
leger
mikro
microsoft
selvstændige
embed
johannes
jubilæum
note
fuldk
spidsen
faktum
forlader
##sministeren
hjørring
##klæde
effekter
utallige
udarbejdelse
##iment
##etil
##uge
bæl
rets
##ærende
##kontakt
##nød
halve
temaer
forbedringer
##aktiver
word
grand
##ravet
##avne
sau
##gørende
læn
##revis
sym
truffet
29.
##øser
##aterialer
videregående
bras
værket
underviser
varierer
plastik
turister
skander
##terings
oplevelsen
##splanen
videns
fordeling
scre
pornostjerne
##top
##timod
terræn
opdagede
personal
folkeskolen
##ringes
søgte
skidt
hon
lit
passion
vejleder
##abon
melde
vindu
##ooth
celler
##ftiger
vejer
rammerne
eksklusive
frems
##sfag
japan
knog
forebygge
olsen
sofaen
asyl
faktura
bb
##rol
varem
repræsenteret
##ern
##hjel
utilfred
seg
maling
foretrukne
##prøver
chancen
termin
tålmod
negativ
vifte
##!)
##autom
chauff
forlag
##issen
afgang
borde
sønderborg
beskæftiger
##styrelsens
reduktion
##ular
noter
størsted
##bygget
budskab
smartphones
tone
drevet
spilles
frivilligt
##lar
flok
##chat
stræk
dagpenge
afspejler
##sgade
##skomm
##eloven
sandhed
forsikringen
##clai
##venlige
formue
2-3
##farve
##arrange
videnskabelige
sf
udefra
##anna
forsink
troværd
ovennævnte
##sene
##serie
eftermiddagen
formod
petersen
konklusion
##drages
opvarmning
trækkes
eksisterer
##umre
veget
##aktør
rødt
småt
traditionel
##enden
faktiske
##osp
##fejl
våde
virtu
##rerende
##støj
udmærket
##ygdom
varmep
bestræ
##fonden
optræder
udforske
home
##datter
filer
skra
##atorisk
opstart
##itor
tykke
ipad
numre
ejendomsm
ansættelse
alles
##zon
##claimer
##astrup
##has
##frastruktur
forbedret
optage
##stillede
jazz
##ala
skilt
matcher
læber
glide
mikkel
bedes
tynde
definition
flit
kundens
##butik
##ki
##ativitet
tabte
høn
effektivitet
afkast
frik
parken
valby
temperaturen
skibe
##stået
homoseksuelle
##sbek
formår
evnen
dagtilbud
##rettede
disclaimer
##ife
rejst
##kkeligt
venskab
##organisation
zo
##ostrup
serveret
##ænkning
##ella
miss
inkluderet
##væsen
uund
##anda
##onten
glip
fritids
bron
49
##instru
rimeligt
stram
skanderborg
##22
morg
profiler
##kammer
fortjener
##stren
##skop
delvis
søgt
samfunds
revolution
##skader
##ress
fjerner
sædceller
størstedelen
stoppede
meld
opleves
vvs
anvendte
medierne
fortællinger
##udbyder
samles
ogsaa
##deg
186
ure
skabel
##ifi
effekten
forberedt
##sbr
2017.
blodet
fortid
##sikkerhed
##rikken
##:0
linjer
administrative
bakterier
diabetes
virkelige
##endelsen
##ua
kødet
##ækkende
##esko
##oser
bøj
##ditioner
##speriode
tankerne
sidstnævnte
skæb
himlen
##institution
##førende
ingenting
vandret
##skur
##ction
tildelt
##sonen
snit
beretning
input
##raksis
tilhører
##itar
cup
homo
enorme
byggeriet
overskrift
##værdier
udviklede
##skin
##fre
ramte
##type
600
solgte
##slået
mas
##gives
check
hvile
detail
##stør
halvdel
##0'
drage
tilbudt
adsk
diskutere
firmaer
rac
gummi
begrænse
##amens
188
##spension
nærings
folketing
##endom
alting
steen
lancer
belysning
modtagelse
(19
uhel
##stjeneste
inspirerende
opbygning
##fundet
##ju
##beløb
##ike
##ype
humor
affilierede
##ulerer
##øft
badeværelset
base
etik
##projekter
genstande
ga
nedbr
##værdien
fødevare
ovenpå
råvarer
nordlige
konflikter
##klæder
beregnes
smartphone
##klæ
##hjer
kanaler
pod
ejere
standarder
spa
skæv
årgang
##emål
latin
billetter
bogstav
##ott
hjælpemidler
##ous
kompromis
##bs
##kassen
schwe
tusindvis
tillykke
##sprojekt
##habili
pkt
stolte
sites
##annoncer
installeret
##inens
kvadrat
åbnes
massag
angive
ift
jack
##rukket
kjær
rekrut
ml
chok
##bevis
arbejdsløs
##ners
95
regning
forventning
mdr
##ænkt
opstod
##atch
deltaget
vinduet
fejre
pålid
trives
spark
##gisk
##agtige
klagen
mol
##serien
julen
ferien
original
##spris
##lut
##esund
##indsats
##ydelses
permanent
parforhold
##kkelsen
frederikshavn
##elet
unges
##skrive
mess
reklamer
##drift
debut
vacc
forsiden
åbningstider
##edi
mex
almene
montering
##atoren
salget
laborator
##sider
more
muskel
skriftlige
lønmod
##sholm
endeligt
håndværker
mari
parf
tusinde
##stillingen
##mærke
56
immun
shopping
##rivende
die
stoffet
tværfag
distribu
økonomien
lufthavnen
##værdige
røn
##egården
landsd
##sprodukter
sådant
##stens
##lovens
##rappor
##zone
færø
##skvalitet
##udsig
dybere
følelsen
plader
ded
skum
##gelser
rug
vindue
skema
indkald
pakket
isolering
platform
endt
vå
##inar
##fødte
blødt
##værktøj
bestemmelse
##sdage
sande
køretøjer
##sproc
uop
41
systematisk
##pædagog
farlige
skæ
##vogne
##værdig
erind
brændstof
sandsynlighed
banker
samvit
kontoret
heldige
bæredygtig
##yggeligt
##bede
##kræft
demokrati
skor
;-)
read
bestilte
velkomne
opbakning
udvikles
ål
ankomst
aftensmad
licens
bestiller
kravet
##uf
køle
forside
##alier
hvorpå
vinkel
polen
ukendt
politiken
beskyttet
opløsning
længden
##3)
drengene
##mord
kategorien
##træden
udfordrende
tegninger
forstået
linket
forsyning
##ward
elas
##fælles
cover
pøl
indbrud
sponsor
observer
fællesskabet
foresp
opbygge
##kob
ejendoms
##fyldt
øjet
bureau
besøgt
snap
vægttab
##voks
betjening
astr
ansøgningen
##stud
stam
jyske
print
##anlægget
udsigten
opretholde
vug
samarbejds
dannet
kraftige
gucca
tilmelde
##listen
hygiej
telt
rec
begreber
hede
føres
kroppens
gennemførelse
##-8
189
##affald
medfør
grundig
europæisk
militær
østrig
forberede
ægtefælle
bestå
forne
vidner
aldersg
graf
##ømmen
##anere
offic
##mak
spillerne
malet
forøg
eksamens
##grundlag
skilsm
eftersp
##emor
medicinsk
##træder
tændt
marker
forordning
præmie
##ælk
hyd
score
meningen
ødelægge
opbygget
##itten
læseren
storbrit
målgruppe
ster
lytter
reparation
von
hals
udbetalt
##ble
parat
##inering
klippe
loftet
røre
opbevares
##regne
optimer
undersøger
sab
alternative
jød
skibet
debatten
jus
##atisti
colle
bac
bytte
husdyr
pdf
konkurr
##bevidst
sæde
mov
vink
understreger
##gas
##ættet
hvorved
##sprojekter
usikkerhed
yt
apps
hoppe
kaldte
nervøs
##atik
##oneret
seksuelt
##strategi
tiltrække
regulering
tum
nederst
gyl
ryge
bestod
eder
##6)
hushold
mistede
##vik
alli
indrømme
teknikker
##læde
hovedstad
lægemiddel
##inf
##styring
##sproblemer
##klin
##leden
bundet
anelse
biblioteket
italiensk
medarbejderen
##-19
fet
skattem
koord
investerings
youtube
##zen
##skræ
##skede
tandlæge
maksimalt
gold
##arbejdere
udvidelse
smed
##uminium
avisen
foreslår
arbejdstid
##aliteter
fleksibilitet
trist
stemningen
gravide
atom
indbyggere
bun
prom
ugers
manglede
plejehjem
cy
sams
##lyd
##mal
sjældne
coach
teste
skem
voksende
##boks
non
kaster
##reste
ører
klinisk
pant
identificere
menigheds
##arden
deg
opgav
nævner
##skærm
forlod
street
told
samspil
##onom
lib
tidens
##støtte
skygge
must
fornød
dræbt
referat
plet
måling
enheden
##ygning
venligt
livmoder
##fulgt
2002
rem
##kommun
idræts
nætter
afrika
tværtimod
opdatering
flade
##relater
opdage
;)
##ævner
##strækning
dyrere
prog
pæne
alsid
speciale
##kyst
udførelse
##:)
ork
anim
rask
mønstre
sproget
kliniske
anerkendelse
overraskelse
fastsætte
bestyrelsens
mellemrum
##sbid
spek
storbritann
##aktionen
forbudt
##jour
##bukser
vidunderlige
##apos
##ummet
kampagne
##"-
stemp
##23
##ebr
##idte
indsig
lærerne
shem
kinesiske
##core
hat
bjørn
melder
åbning
kommunikere
retss
skulptur
ringsted
##rænding
##mmel
ansøgninger
54
laveste
pak
junior
adgangskode
##plom
fril
lovens
arrangementet
konfirm
netværket
efterløn
##cise
parret
parall
##afrik
træffer
aktuelt
fleksibel
##sse
boks
dl
videoklip
pia
inspirere
##kager
##interes
##sbor
oprør
indien
øvelse
ordning
varieret
stren
##tilsynet
##vald
synlige
##nens
bæredygtighed
væn
##gelses
##appede
frid
koncerter
##relser
folkek
imødekommende
##skriver
##8)
bli
råb
##sbeting
afhent
mørkt
omhand
##smu
strik
snor
nærmer
rykker
##tigede
skit
hvidløg
seriøst
afgørelser
brugs
forvaltning
klipp
sikke
fiber
kandidater
2:
##elor
uni
regnet
betingelserne
##%.
2001
##gel
ager
##overe
udlændinge
fog
præstation
##iblandt
kassen
projektets
##direktør
##rudt
tons
præsenteres
ankl
søer
ærligt
##blå
spot
cyklen
taller
aluminium
##ool
køleskabet
hvidovre
medvirke
benzin
kvarter
13,
placere
sovjet
beholder
##yndig
skræddersy
##roid
ped
redde
##skontrol
opvaske
datings
##brudt
mærkeligt
bit
makeup
overvågning
elite
melod
skuffet
grundlagt
tos
årrække
inviterer
kontingent
##unst
erg
##armen
pakken
vedtægter
##xt
menstruation
##ades
##kkene
formel
bekymring
##store
mødre
menneskeret
tårn
kneppe
##7)
sar
tegning
indstillet
soveværelse
##bedste
birg
kreativitet
fand
sagens
skå
##betændelse
##ælt
carsten
indledende
##farvet
##spillere
udkast
187
kirsten
mændene
##schef
lene
fonden
##orienteret
##direkt
morgenmaden
negle
juridiske
partnere
garder
53
##posten
typen
digitalt
snu
båden
vanskelig
2,5
ast
display
##salg
enden
velsmag
##lelse
domstol
##-20
##begræn
omfatte
bond
medi
cig
##iverset
ringede
fyldte
opdelt
lesbisk
tilmeldt
##ffe
ligget
anerkendt
attraktive
##sform
##apning
angri
0.
støvler
regeringens
##web
##estil
hanne
##kkont
##iko
dømt
##brog
tvunget
budgettet
overnatning
binde
veter
udlejer
##word
wal
gennemgår
##yndigheden
185
rødovre
##kasser
lek
##spring
essen
tallene
henvendelser
øges
virus
børnet
spirit
nykøbing
utr
dyrker
menneskets
##itive
girl
variere
64
##board
citron
fryser
udgifterne
tørt
orange
samvittighed
##askiner
beteg
keram
fuldstændigt
2016.
sandsynligt
##eløs
krog
##parten
efterspørgsel
##don
800
husets
formidling
##teker
racer
kreativ
schweiz
##indes
##sforsikring
liden
magnet
luk
onde
kvalificeret
##hs
bekymret
anvendelsen
irriterende
manu
springe
servicen
ze
forinden
komplekse
sygeplejerske
tillade
jose
##ekon
kirur
veder
latter
##cast
##ents
ess
##kapital
##forme
kæledyr
##uller
lau
##bygningen
lidelser
godkendte
religiøse
##opgave
besvare
portion
siderne
##frug
##ygger
##skar
underligt
bredbånd
funktionen
dimension
pic
##leverand
##iere
innovative
realkredit
##comp
##bestemm
monteres
rehabili
##allere
kosttilskud
##lædning
medlemsst
##dis
##ariatet
hemmelighed
epis
##tagelsen
iagt
infektion
##lel
anskaff
instruktør
trykker
uges
holland
langvar
ordinære
##shosp
reform
søskende
##anker
rekord
scenar
##gik
hegn
varetage
vred
mands
videoen
forbliver
##ynge
vinen
##magt
sod
grov
kameraet
vrede
##klubben
portug
erklær
strækker
house
virkeligt
rand
slip
##iering
##billedet
infrastruktur
bussen
##ters
juletræ
afslører
glostrup
syr
ordningen
beslutte
udsagn
skudt
kærlig
skjold
neur
royal
passager
trafikken
efterskole
auto
##fx
##lægen
##finans
forsker
##esh
##tran
format
palæst
kommand
tidspunktet
færdigt
implementering
fanger
ida
##hverv
##olumen
##bende
naar
louis
ærger
##rationer
hang
race
festen
##øbler
rejs
##dating
lugt
egentlige
løfter
journ
android
##hur
herfor
berling
##anterne
udt
##amilla
kager
romer
indirekte
bd
erstatte
tidspunkter
##ymp
##forbruget
(5
riv
##plo
##blog
godkendes
sexede
årtier
15,
dosis
barns
ambass
sundhedsvæsen
lykkelig
gennemsnitlig
skarpe
##baserede
##pligtige
katastrof
##kurren
##frokost
forvand
gennems
58
mild
tilsk
tallet
beskyttelses
lovgivningen
##station
##spladsen
juridisk
tilsammen
##hor
denmark
kongelige
hinandens
eje
rober
##skål
oversættelse
usb
udgangspunktet
sviger
forleden
##21
spild
##barn
##materiale
grundlaget
bay
fax
##seng
##ryk
gril
##reve
højest
skjult
##holdende
ingeniør
kristus
skønnes
mælke
journalister
##stor
poster
##fakt
kemik
stund
bekræft
naz
uddan
wik
##æssige
##gam
brune
feedback
##draget
diplom
pensions
scener
hellige
##vitamin
tes
##gerende
##elementer
arom
smit
opgaverne
klædt
domæn
selvmord
accepterer
##prof
næsen
samtalen
fantasier
patienterne
##fælde
##brand
herred
andreas
ansvarlige
tønder
##ybe
hobby
##ansøg
afholde
madlav
##ikre
svæ
##mands
##møder
kysten
entreprenør
##holdte
byråd
##læsning
##hente
håbet
ordene
modstander
øer
applik
99
##tillid
vurderingen
##-4
%.
##renes
dedik
##sset
##jeret
##sbehandling
velsmagende
##artikler
wi
##leren
split
vægten
målsætning
ruten
afsnittet
tech
##isoler
filter
komponenter
##upunkt
understøt
konference
sagsbehandling
navig
##isted
reagerer
##lagde
##ublik
flex
##inket
indvi
kirker
haderslev
##nord
ihjel
lighed
ventilation
underholdende
stak
##asing
daværende
åh
##pres
taber
lærings
forbr
rot
forsvandt
adop
##ilj
mistanke
sparring
hjælpsomme
smid
torben
##runde
kronisk
beskat
samsung
grundvand
varianter
##model
chancer
rediger
signaler
albu
marian
sec
slim
omdrej
##eligheden
##sigtet
skulde
udgøre
hjørnet
##ui
enorm
guler
kombinere
##ience
##ktail
strej
##avnet
##ftere
forank
##cykl
##pati
##sekret
sofie
14,
##mmede
##lespil
nederste
anbring
landskabet
skolerne
landsdækkende
tiv
forf
genstand
opdatere
184
tilgængeligt
rækkefølge
##sal
##både
sammensat
##/5
##so
øgede
udtaler
konceptet
ødelagt
familiens
præcise
dyrene
##wor
sult
spejl
##jælp
visit
udpeget
overholde
hf
##nel
##vurdering
##æge
opad
forespørg
vill
##sperioden
##pool
##oppede
afgøre
gribe
smidt
kollegaer
##hd
daniel
good
fotografer
##**
##størrelse
##vang
fastsætter
spansk
##familie
rub
##celle
energik
##esex
lår
musli
##klassen
downloade
may
thy
partiet
asi
bekve
ce
tyver
mix
ron
##ng
##lemt
##klass
planlagte
inkluderer
brø
ged
gymnasium
##dato
##ræng
indeks
niveauet
drikkevarer
enighed
las
pej
legem
ophav
##onering
cykelt
dukke
ah
ejendomm
gel
tegl
doser
toget
bragte
flytning
konvention
df
##esæt
drengen
0,0
##konto
befri
velly
trygge
krævede
##36
57
overgreb
udtrykke
reaktioner
klaus
egentligt
forurening
##.).
ubet
##centeret
pern
risici
forbrugere
inddrage
lign
herlev
vinden
fingrene
pressemeddel
laks
human
##egle
##samfund
##slisten
##estue
arbejdsopgaver
##sor
##produkt
storbritannien
prins
drøft
sammensætning
bredere
##85
måltider
frek
misforstå
georg
realitet
forårsage
len
##vidde
##rater
ugens
analysen
opdagelse
##orts
##psyk
porte
##ametre
afløb
storby
##frihed
turde
##smiljø
sutte
rulle
ultra
##ferencen
henvende
##dede
box
pille
##partner
køns
##sigtede
kedeligt
perspektiver
##boy
slette
avanceret
nydelse
##sættelsen
sun
separat
voksede
forsynet
(201
avancerede
disku
strategisk
##ælling
een
stiftet
skrives
vul
aftalte
velkomst
##ellem
king
##smateriale
sut
efterlader
##wich
deles
fløde
brygger
emm
##stjer
kasper
oprettelse
omegn
synet
henter
tomme
##projektet
##ums
##ævnt
##forsvar
konstatere
##imp
##skrivning
opgørelse
##olin
##baner
flemm
##løn
66
##endelser
ik
##hallen
besparelser
terapi
trådte
japanske
3-4
stal
tilfældigt
indeholdt
spejder
##26
bik
sed
omgivet
##øvelse
måles
forudsætter
##brev
bekymringer
redegørelse
fornuftigt
henne
fattige
##systemer
køretøj
australien
##fikation
##betjening
##felt
årlig
formidle
gardiner
valuta
traditionelt
##fugle
##batter
beholde
kriminalitet
##omfru
akvar
##lan
##omster
dagsordenen
##00,
ama
##øster
træl
mogens
attraktiv
forudgående
##roen
##tain
glimrende
konstruk
##bespar
##esteret
livets
bestemmelsen
##uten
robust
stav
##smødet
kritiske
essenti
##programmer
##ary
##teringen
forfattere
generationer
adam
sejle
##idens
smilede
herrer
##egler
løses
skind
detaljeret
afgifter
##fungerende
##kål
##kelse
tyrkiet
kommuneplan
##plac
##forældre
##værdigt
##stilbud
kvinders
##undersøgelser
##esult
råder
##aktive
indsk
prinses
##0.
##sformer
beslutningen
deci
oplyste
afsluttes
udleveret
ejendomsmægler
##pol
foden
sejler
omgivelserne
slikke
skræmmende
tang
romantisk
##bio
hovedsageligt
flow
foregik
angel
bakker
problemerne
##rethe
##ænker
udtalelse
pend
##stration
rh
los
strø
##administ
velvære
##bruger
##historier
fødderne
swe
##figur
elektrisk
menneskers
ankommer
##skridt
##verdens
påpeg
voldsom
regnskabet
overbevist
kit
##isere
##øvede
robot
spanske
##itiv
lut
##byggeri
flor
harry
flemming
kalorier
markeder
##book
telefonnummer
blande
siddende
afb
crem
direkt
taknemm
indbydende
regelmæssigt
##mpe
##skib
##yden
værende
forberedelse
ensartet
bebyggelse
##ops
indk
dominans
from
##,.
##27
yngste
udlænding
##forbindelse
kreditkort
medens
forhøjet
##ariat
vandre
poulsen
##estr
nyborg
østerbro
påvirkning
magn
kran
sanger
##koncer
##rering
armen
synge
nærliggende
forbindelser
afslør
menings
rib
cand
##øves
kak
auten
mæg
gods
hylde
spredt
forplig
folkeparti
##spørgsmål
officielt
trætte
anbefalet
vitamin
gavekort
særskilt
gæste
mørket
figurer
##igennem
kommunikations
##pat
forebyggende
##sving
arrangeret
##ague
ydm
##oline
buks
poker
bistand
##het
##gæng
##flade
udsl
meldt
oversti
##ramme
anlagt
benyttet
##trækning
farverne
2015.
##uddannede
forestilling
##gået
##stegn
##avede
##foder
klikker
trusser
##øvler
kvadratmeter
##onden
import
host
hospitalet
førtid
prædik
velfungerende
femte
ox
##wood
flu
##stød
##reres
typiske
class
silik
begået
erektion
##distrik
##sbu
##28
##værelsen
rist
funktionalitet
##can
opretter
seksualitet
spørgeskema
mærkes
##raa
beløn
naturvidenskab
##ften
##inationer
##dam
##angreb
aktie
klinikken
forbrugerne
##ellet
##ækning
##ologien
panden
##mændene
##festiv
hensigtsmæssigt
viet
##ændring
##skiftet
ax
magten
tabletter
metoden
dirig
##maskinen
kunsten
stramme
##dj
perform
vikar
hop
naboer
dokumentere
##ård
kokos
konger
nærvær
##udviklingen
anerkendte
universitetet
aaben
ejet
##fabrik
egner
vanvit
lady
hyppig
##stykke
vo
yderste
holdbarhed
nark
2015,
db
cens
flensborg
16,
salgs
##moner
bagud
passede
cen
genet
adskiller
solidt
handlede
begyndelse
udnyttelse
ving
græske
indføre
##-5
10.000
##eje
reel
sjælden
88
##yrdes
svagt
justit
##spladser
skatter
##aterialet
##oe
etager
##34
folks
grave
regi
hammer
varde
citater
kæresten
falster
##lub
##ømmet
69
syl
hyp
##visor
bonde
##mentere
kæde
dress
rejsende
spænder
bogstaver
##eringer
##taj
afsat
afsluttende
omkostningerne
bitter
##lens
drå
zoo
pind
kongens
overvejende
praktiserende
##ulin
##talere
##fol
logge
norden
blid
shemale
skjulte
gif
optimere
privatliv
forholdene
jobs
frugter
variation
uafhængige
##nyt
pla
##udlej
begrav
forholder
erhvervslivet
happ
##forskning
væsentligste
hovedpine
pier
pels
velkendte
##ærm
kvæl
##sbeløb
##,...
##skred
##elskab
kvaliteter
##læn
##arv
##lås
afvig
jakke
honning
##tivis
rumme
indehaver
##cy
##-18
underskud
springer
##lu
ægge
overholder
##fyldte
forelsket
vitaminer
alternativt
mort
##ulde
trof
mindske
præster
charlotte
##skomp
flasker
loy
vindues
##bol
rich
atlet
willi
kigget
kompetente
aggr
indbet
nuancer
##39
bagsiden
politiker
produktivitet
gyldne
østjylland
##spir
##blade
irak
aldre
offer
##okken
blodtryk
).
##undborg
fæ
kælderen
##usioner
##frie
jonas
tennis
##ally
berlingske
receptionen
##regnet
køres
action
galleri
bekræfter
batterier
gensidig
##forbund
lederen
##ygter
driften
##bj
overtog
formen
cocktail
højskole
bekæmpelse
sommerferien
skot
internt
##områderne
henning
traditioner
specialiseret
hp
##ifte
jag
institutionen
garanteret
##por
guitar
hesten
markeret
50%
svømm
rødder
##/10
forælder
##rich
brændende
##studerende
##dok
skød
##lighederne
##rundlag
##ensioner
vejledningen
bygg
##tidige
teknologier
union
hæl
bøde
ministeren
##igter
##klædning
##tægt
indsamling
mental
##erie
kvik
sæbe
##fladen
drømm
mht
udsættes
elektriske
konstateret
spekt
flyttes
72
cra
##natur
lovligt
stadion
suver
##oke
premier
##kval
##punktet
rådets
open
baner
gryde
realistisk
ef
pernille
erklæring
vanskeligheder
##andel
rede
mødtes
##best
adresser
udbetales
voldsomme
afslappende
sofa
løser
barcel
bøgerne
posten
##raget
##okaler
kirkens
pink
tætte
ernæring
centret
yndling
filen
##ressour
ration
homoseksuel
##kalender
deraf
##shistor
beskeder
##zy
demens
diameter
##);
##usionen
svampe
overført
dun
nyligt
dannes
serveres
tørret
differen
kh
indbyrdes
foregående
##omsten
uskyld
snakkede
##sselskaber
59
udsm
##plejen
udkom
herinde
tallerken
##stab
##trin
##almind
##lament
vedtæg
forårsaget
##dal
alu
defineret
udstedt
##sforening
cvr
ikraft
udbydere
##......
cle
##ørerne
sutter
bestand
kedelig
##tillæg
isoleret
egyp
##omer
2020
dagene
forbinder
rese
prost
styrer
dsb
fornuftig
støb
vaner
skåret
##ængen
kjoler
kostumer
forskerne
kartoff
##ome
horis
music
antik
toner
matrik
nederlag
##sbas
teat
##teknologi
bestemmelserne
##ituation
afslapning
this
blind
lamper
mormor
##flix
##ademi
##lignende
run
indtægt
hændelser
nysgerrig
instrument
overstiger
appet
jomfru
rester
refunder
då
dødsf
sygedag
betydningen
##forn
##ulær
##entre
farlig
æble
smut
dynamisk
management
instruktion
##kg
##kanten
efterfulgt
livskvalitet
farten
afsender
bevilling
##astning
##ml
muslimer
##bevægelsen
##orth
nedad
ministeriet
forelæg
##selskaber
touch
tilgængelighed
ih
##aves
##sforen
udred
camilla
##retter
returret
thisted
yndlings
##beskyttelse
##yggen
##sberet
digte
kontakten
##uh
wifi
stock
detaljerede
ligegyldigt
beund
ambiti
ballerup
reelle
skiver
evangel
##forsy
sektion
##cd
væv
kvit
pose
europas
snakket
##assistent
kørekort
områdets
æbler
oliven
styres
udad
##ageren
falske
given
overvå
##prop
drys
nordic
##skaffe
##procent
landshold
cykels
trav
##værn
unger
bjerge
roller
vejledende
##udder
siddet
##æden
uøn
bandet
oprindelse
bøg
##egning
bruse
lovet
brystet
groft
målgruppen
eksperimenter
##artner
##butikker
seo
(4
##giske
jeans
rammen
sygepleje
energimærk
vesterbro
rengørings
cros
mene
smile
takke
##øvelser
udsendt
strategiske
##ugter
tungt
##ited
hek
##agtigt
ideel
norde
begejstret
##læger
speed
marianne
##istan
farvet
iii
gast
trop
flybil
##atører
notat
udstillinger
##tise
booke
ansøgnings
ideelle
stillingen
##fær
##ussen
rytter
beregninger
beskyt
kontrast
##pon
asf
faa
ane
arkæ
brands
synger
51
##uropa
##otiske
kulhyd
kagen
victor
kemi
oral
dreje
##bræt
##inal
##gaver
##adgang
trænet
forhindrer
hævet
ladet
##aritet
motoren
kalundborg
middelfart
vedligeholde
2016,
jæger
speciall
gennemførte
folkem
kastet
digt
seriøs
statisti
affære
overføres
##ors
jung
ofre
group
modern
gammeldags
##espil
førtidspension
arhus
##sbidrag
kobber
##splaner
strande
bisk
dram
##reder
##klagede
##mødet
stoppet
supplement
##mers
finn
nære
##halv
julie
møbel
reserv
adressen
##een
tær
2013,
sammenlign
##vognen
kommunernes
forældrem
##umb
##iber
irrit
røven
ungerne
firk
fungerede
medfølger
##numre
2014,
twitter
west
##pass
##alie
1960
refle
skild
##virksomheden
tæppe
##fatter
lysten
færreste
##funktioner
##esse
##ilien
league
##søkonom
dækkes
##skad
jav
##valget
rimelige
lejr
tivoli
hovedperson
graviditeten
tyndt
argument
fleksible
inklusive
pædagoger
##pig
kompet
##00.
##motor
##vejleder
eksplos
magasin
gymnastik
styrelsen
udstrækning
##-12
meddelt
reagere
udtrykker
##jekt
##sager
lidelse
netflix
indvandrere
##bod
##sund
cykle
overtrædelse
breve
statslige
maa
gebyrer
fester
kristensen
##ida
heri
svage
besiddelse
##emand
tåle
fremgå
##nets
bekræftet
escortpiger
anm
bot
##rediens
varetager
floden
arbejdsliv
##boler
girls
hyper
mast
afslag
##artede
##eleder
##problem
registrerede
##aktiv
##musik
food
kloster
##programmet
fm
##ydet
omkostning
##neret
##funktionen
68
pumpe
arbejdsgiveren
##ås
delte
##energi
måneds
oftere
##forum
##ystemer
briller
inddrages
dokumentar
##nesk
fremskridt
midlertidig
midlertidigt
tilmed
tømrer
##vad
roser
negativt
lastbil
distrik
##elf
flys
##oratet
kinesisk
myndighederne
analsex
rapporter
leverandøren
##sløse
albert
konservative
17,
##agende
##eksper
spises
angives
gab
frod
belastning
græken
spillem
middelalder
##9)
lux
detalje
pletter
hemmelige
medbringe
##dater
##lande
##sregler
##oxid
trakt
bekymre
mærkede
terrassen
hass
stabilitet
##asket
##rod
koloni
fandtes
udgiver
analysere
lay
hvalp
sauna
russisk
##eff
minus
##ledninger
##ssystemet
##38
aftales
nøjagtig
tyve
kosmet
indstille
børnehaven
ank
skrue
tilsynet
##anvendelse
omtr
blon
flugt
##melding
##key
overleve
indekl
styret
indlægget
troen
74
varerne
registrere
formå
##shirt
nytte
felter
##ebolig
##/200
##tians
##niveauet
omkringliggende
##stog
brian
wo
krøl
armene
støder
offentligheden
pilot
ruder
auktion
hjerter
anker
https
præmier
anbefalede
oprindelig
incl
##irken
vedhæ
dominerende
sum
anvendelses
##ces
ever
jean
tænde
##endelses
faldende
##interesser
udarbejder
67
fysik
udsol
98
forkæle
indlagt
##stur
gps
fliser
ombord
reduceres
war
spont
stolen
18,
pad
teamet
jordens
jacobsen
##zer
patri
##tidspunktet
begrundelse
sammenhængen
##bunden
jorde
nordvest
bruser
kemiske
ringkøbing
##ory
snyd
##holdning
organisering
##-7
katalog
fokuseret
udfør
##sektoren
uafhængig
forestillinger
##slov
ego
call
etablerede
##eklin
advarsel
karakterer
orienteret
aktuel
skarpt
##work
##emarked
reference
væksten
##ationerne
reserved
dessert
forstod
indskud
10%
fordybe
undertøj
sikrede
prioritet
##rifter
mej
sned
##kursus
fineste
tilpasses
##farver
##lægningen
opspar
bål
##mmere
revet
##klæring
events
overtage
##øvrigt
rud
diagnose
ventetid
##vold
nørrebro
bou
mænds
batteriet
færøerne
tæpper
tilværelse
63
butiks
designs
optages
måden
overstået
ukra
##dering
canada
20,
asiatiske
relateret
##stolen
fastlagt
##radi
##edage
bdsm
mandens
vigtigere
##bragte
greve
værdipapir
##skning
##afstand
kompliceret
0,5
næg
##linjen
beach
hallen
ds
diesel
madras
skilte
4)
krævende
skilsmisse
##cia
##inv
##video
merc
##rust
cast
tapet
##tets
that
##.1
##act
##acks
blidt
slagter
##teks
strategier
##nej
att
sødt
dagligdagen
mem
asien
iført
rikke
installere
hvortil
læreren
##info
##slån
##ledere
login
bachelor
håndværkere
##mg
##amper
##drede
##shj
cel
##vaner
##selskabet
kendetegnet
##frist
list
##smetoder
##løshed
operationen
##xx
fig
##pes
##skrid
bekæmpe
gennemfører
blods
##forbind
maksimal
lidenskab
##orit
laser
arbejdsløshed
malt
centim
indikator
##yen
prøven
##dog
drives
pikken
opfyldelse
##ssund
86
##osit
1999
mentor
emballage
bogens
lunge
inse
genkende
vestjylland
glæden
##godt
##oman
afdrag
fremfor
træthed
udløsning
##lers
søb
##ainer
omtalt
(18
odder
betingelse
##ido
navnlig
##ado
3:
allergi
thomsen
##aland
##fravær
##regulering
betalte
billund
rygning
ilt
amm
cur
filtr
##levende
dørene
inn
klap
rådhus
##afsnit
lovforslaget
vække
medvirkende
tænkes
fremadrettet
##urg
##grøn
indfri
elef
avl
statsfor
baren
nøglen
##oversigt
organer
registreres
cru
##cykler
##vinder
bluet
##ivelse
smagte
aff
james
temaet
##umpen
symptomerne
tarm
ledig
anmelder
rygs
##ilder
hjertes
tilsendt
##født
2012,
sætning
gentofte
vederlag
attraktivt
årsregnskab
##-6
chili
erfaren
kørende
##organisationer
vasker
forudsat
strikket
barcelona
lignede
##processen
sundere
##ssikring
nationalt
##fond
sfo
bagt
påstand
lesbiske
selskabs
kompetent
gennemsigtig
tilstedeværelse
afprøve
overfør
bemærkes
##næ
myr
farverige
snav
##sgiver
afhængige
låg
budd
evigt
##tex
##sprocesser
engageret
syddanmark
robert
konkurrenter
##fjer
phot
ømme
##lads
casin
kvæg
##andere
istand
omhyggeligt
faderen
##stilladelse
lokalavisen
slidt
afgjort
##fu
kup
2014.
boller
efterlad
case
gennemsnittet
##lader
ledende
medicinske
beklager
##rådt
##møbler
kontrakten
trusler
genre
reducerer
##pose
##smodel
##arbejdning
##skj
##rine
##udere
(200
##pladen
##varteret
hørsholm
##apeu
klæder
##arne
soveværelset
##syge
uplo
trang
villig
##ibre
omtalte
##anstaltninger
roc
##ansen
selvværd
ribe
afspil
bedømmelse
##somkostninger
##glas
##meldt
bækken
servere
research
angivelse
##37
##inke
##skør
børnes
slutte
##venligt
gymnasiet
##guide
broen
teoretisk
superlig
##ungen
susanne
2017,
##imellem
lanceret
##ref
##dannelse
japansk
midter
gifte
kryst
vidst
##holdere
skeden
cu
serier
ligestilling
kryp
volumen
aflevere
##udgift
##neren
grafik
ingrediens
##strå
hvede
##stitutter
##ologer
radikale
##100
ophæ
klæde
##spraksis
##eskov
omeg
vuggest
planet
smalle
indtaste
dårligere
erhvervsd
bevægelses
##skrives
##gets
krydret
afsløre
gevinster
smider
glatte
hundred
omfanget
##svin
kopier
udbetal
##aku
ryn
rettes
##urdering
grundt
kuffer
lukkes
vidne
##græ
optager
aviser
opstilling
##æsning
##egade
udgaver
##også
##plejer
##icht
##plat
enlige
bemærket
underlagt
fornøj
paradis
inventar
##bom
##porn
bly
iso
aabenraa
næstformand
dys
franc
##forstyr
normer
hylder
bass
kore
modtageren
##ira
get
udlån
nakken
##træd
kreds
fuldtid
##mund
indvendig
fortolkning
##edal
##lænd
ordbog
præsten
##ministeriet
flød
sara
medtage
tu
##ives
trænere
nicol
folder
udløbet
overtaget
##spot
uænd
opsat
skagen
maksimale
bern
stævne
udenom
indgangen
##brede
##præst
erob
kollektiv
##beth
museer
udfordre
##dæ
barber
forladt
angående
gradvist
nil
sant
allan
##appet
pump
tilsluttet
dead
lagerstatus
sommerferie
##salt
##avand
rykke
opnåede
moun
##ahl
værdig
bluetooth
dna
apoteket
risikere
fællesskaber
##date
chil
##ssag
malerier
nøgler
ekspertise
skinner
argumenter
afdøde
hæfter
kontekst
kommission
regnes
ulovligt
grækenland
fremmer
centimeter
fel
ble
##allet
pikke
opføre
stabilt
bestået
blue
norsk
sexfilm
omtale
hardcore
fascinerende
##rikker
fremgangsm
##ript
rumæn
fastsatte
begrænsede
søj
##skabe
frygter
indgreb
istedet
leverede
betragter
##ørger
apparatet
kogn
##udsigt
advent
købmand
erstattet
udtalelser
dba
seriøse
trøje
##overing
skadelige
autoriseret
##29
storeb
kriminal
rollen
temper
##rive
teorier
happy
halvår
##33
pur
##pilot
udgav
indtage
ordsprog
##grad
ulykker
ærgerligt
julefrokost
20%
##gien
gåtur
vidunderlig
begravet
##:5
white
##olaj
begær
sigte
finland
##slo
ic
katol
##mis
komfortable
tænderne
opstillet
sagsbehand
##ynger
##familier
vindmøller
##jene
##ykket
##eliste
##rivelse
##.),
160
1.000
trænge
omdrejning
##avis
##aldet
##ægten
højden
tilfældig
installationer
skyder
kontaktperson
##reger
##ono
indhente
smilende
konkluder
fortrydelses
##idende
protokol
skala
regions
websteder
rekruttering
isb
##drage
barsel
duften
satser
skiftes
plig
##ficeret
ideelt
respektive
overskriften
##lis
gulve
beviser
ere
falsk
olien
vellykket
tvil
##nettet
sandwich
##analy
##design
betinget
##vm
win
dahl
indtager
##gard
nakke
knytter
påkræ
kastede
taastrup
hab
obs
sas
trappe
udenlandsk
##?)
##forsøg
kombinerer
tøs
##ansatte
forlig
forklarede
bm
ubegræn
##esvig
##prise
##risen
##tiler
landbruget
kontaktet
tilbøj
parkerings
præsenterede
elektronik
forsvundet
lyt
selvtillid
leasing
opgjort
bidraget
##lang
forblive
færdes
1950
undgås
##iserings
interesserer
##hæv
clo
mails
dick
110
19,
appels
blæser
omtrent
##bul
fusion
erstatnings
wa
isen
tykt
udformning
brancher
muslimske
stive
tilsat
arbejdsdag
ulykke
produceres
gær
##skamp
jagten
division
massageklin
gø
udveksling
jøder
temperaturer
aircon
kvindelig
abstra
værelses
afstemning
##nam
lise
instrumenter
doc
##ellekt
##sikker
inklusiv
pir
##bygge
##inding
##rådte
sorø
agent
rolige
skabet
faglighed
##inkel
##istyr
lone
vording
procedure
##ago
fjernsyn
nit
konkurrencer
##any
forsøget
700
##celæn
fars
##søgning
utroskab
96
##ørne
kristen
halvleg
inddragelse
anten
tilbagevend
##ødte
døbt
##biblio
tasker
straffes
landbrugs
##væv
day
miljøb
justere
forhandlere
øve
oversv
visuelle
##?!
indslag
vordingborg
##netværk
synspunkter
ånded
manager
decideret
##ødt
håbe
færdsels
udkommer
ansøgeren
fjernelse
behagelige
indbetaling
guider
bagved
##ministeren
slås
perle
længste
nyttige
parametre
77
##stein
pynt
stej
udgjorde
kontinuer
##ple
ligne
oversæt
gentagne
anstren
forsvaret
døds
skaden
##sklub
chi
aggress
printer
nap
##otisk
nets
##ømning
filosofi
heriblandt
dar
2019
anton
christina
afholdelse
##minton
ht
flet
lampe
sprede
##ificeret
opholds
##agtet
##immel
naturens
afk
##ryg
##bland
arrangere
cirkel
madlavning
##faglige
##planter
arealet
##-9
tig
stier
opdræt
beskæftiget
##tegnede
energien
university
foreslås
dimensioner
cook
kulturer
fyret
##uropæ
friluft
moderen
##kop
##tanke
militære
psykologi
sygefravær
##:.
spørgsmålene
svind
##flader
##tikel
neutr
afskriv
database
##banken
udtalt
##spark
2018,
borgerlige
undersøges
destination
##reglerne
##idi
lot
##briller
##brugere
angrebet
tømmer
##lamentet
ukendte
legeplads
procedurer
meddelelser
audi
defini
pressen
målinger
##olet
aks
pav
synder
teenager
##nie
##esti
##valgt
##ressen
koncentrere
62
##marks
card
parfume
tydelige
##alje
passagerer
....
facade
fremhæver
##ami
##anmeld
champagne
ultimative
aldeles
klinikker
grus
##sfre
##vagt
bremse
grafisk
imødekomme
bæredygtige
usædvanligt
##cing
##tilitet
underst
sygeplejersker
##kalde
##stykker
##fordring
snarest
arne
##hjælper
rødvin
indenrig
begrænsning
gennemgående
140
##istik
bagage
igår
##ky
jor
streaming
##pu
tilsku
marc
sangen
##tegnelse
håndfuld
pasta
##amerika
kaptaj
##konsulent
røver
fantasien
gitte
access
støttet
##ansvarlig
##irts
nice
udlig
pragt
dokumenteret
tina
forstærk
forårsager
##følelse
##,,
##nøg
mb
ike
fornyet
##omb
##umm
##lemmet
hjælpen
rækkevidde
##32
##kilde
glasset
organiseret
##brid
##ariske
tålmodighed
##cker
blan
fornuft
familiemed
firm
låse
skiller
kvalifikationer
køer
##orerne
kostede
certifik
dåb
butikkerne
frederikssund
toilettet
##river
slettet
dannelse
##smer
hobro
overvæg
130
skæbne
åbenhed
##illa
##ytten
kendes
##stemning
##abonnement
hygiejne
nak
glemte
pulver
##eskole
slave
opfatter
syrien
lægerne
pludseligt
svan
fortsæt
virkninger
##alde
farv
flittigt
##ødder
armb
udfold
(1)
dum
tendenser
supple
kemikalier
målsætninger
##stop
flæ
##sborger
redaktion
forestiller
##æver
##indsigt
oversat
##bte
klippet
kredsløb
sindss
hængende
forhandlinger
##akken
drev
krim
##-200
berg
svej
trine
slagsen
##ota
##farvede
##grunden
##certi
##ængden
grene
andelsbolig
trag
østers
##retninger
hvorimod
danskernes
##tidig
afgive
helvede
mødested
garanterer
lasse
##kkelige
investorer
udbuddet
##uddannelses
##pi
##plus
##yggelig
erkende
nysgerr
trold
##modeller
##værktøjer
##skons
overholdes
##fan
langsom
##pal
bill
##ienter
intellekt
##bø
##dej
##sher
191
lego
lister
opfordring
##fælge
manuelt
menneskes
##esi
toler
antages
forsynings
samfundets
projektleder
##ædre
##cerne
##telig
##firmaet
appetit
overføre
forældres
palæstinens
##trafik
##løsninger
overflader
##ikon
##sprøj
##eselskab
##tagelses
##lejlighed
##ligste
menes
vågner
studere
løv
olier
ulemper
invitere
berørte
søgeord
betegnes
porcelæn
##obil
##stest
##risiko
##udlejning
##fs
##indeks
##oget
oste
borgernes
egenkapital
##sfun
##alismen
##sselskabet
##asy
##skap
markante
industrien
mentale
forlaget
forbedrer
coun
bydel
heden
midlertidige
78
småb
##boende
##inspekt
balancen
udtrykket
omstilling
beskrivelser
oprettes
flod
##sbegræn
tillids
sekt
##elev
lan
##ønnede
indstilles
##djurs
##ameter
vognen
koncern
##materialer
overvældende
##spræ
kanter
kod
dort
erne
beklag
angivne
##cas
76
plu
puls
dykker
sorter
diskuter
teknologiske
##opr
gennemt
følsomme
retninger
##nde
##kron
##kryd
swing
##tus
ordren
forestillingen
##estuen
undvære
##øste
højsæ
kæmpede
suveræn
##lant
##sebær
testen
skabelon
##forståelse
##iale
1998
skaff
bekræfte
aircondition
tov
##italer
poolen
stater
angiveligt
øm
udtale
premium
ydermere
skæg
college
fortællingen
allermest
tydeligvis
##undersøgelsen
sydvest
politiets
indf
##formål
##apeuter
vækker
ægløsning
##vægge
mord
mindes
fortiden
##uri
hentes
symboler
hensigten
excel
87
##aker
afvist
hvalpe
opfordre
regerings
smad
##luft
birk
##bered
nødder
trussel
serverer
afstanden
##aljer
ishøj
tricks
##skabende
gentlem
henover
reception
potentielt
demokratiske
##stav
zone
beslag
##ime
pist
##pulver
skille
badminton
kommunalbestyr
##pakker
,-
cirkus
stikker
husstand
##iter
landdistrik
forretningen
knudsen
mikrof
dukkede
skiftede
grundejer
mobilen
prioritering
årsregnskabet
##ws
lg
light
teenage
##idlet
##måling
##sprinci
patent
varmer
kvælstof
betegnelse
påbud
sparek
krydderier
nøglet
sjovere
bindende
##ansvarlige
forp
kult
mose
tabellen
##sbetingelser
##rets
hash
ment
fordyb
##foreningens
hovedparten
konkurrencedyg
djur
drop
fæst
altan
gentag
burger
konsekvenserne
''
##bror
brudt
silikone
imponeret
overgangs
hak
ophæng
##alisering
unødvend
informere
besparelse
loc
fugl
##afrika
sound
booking
fremhæve
tilkende
##wer
karam
office
cb
strøg
presser
fornødne
resulterer
bat
##ægning
informer
betydelige
##abe
brut
nike
derpå
##magas
udnytter
##zonen
reglen
efterretning
##wn
flash
##apparat
indsættes
1800-
##markeder
##fel
##sdyg
##sbe
##svar
velholdt
leveringstid
efteruddannelse
kritiser
skove
bjarne
stærkeste
##fjord
##amente
indeni
ligeglad
##orienterede
##merne
##organ
solskin
blodsukker
kollektive
##host
##entes
##museet
##uddannelserne
sproglige
ingef
##lesen
sejren
ordres
##relaterede
sundhedsp
udsp
mineraler
ket
syre
kugle
##computer
##virker
bevaret
##øjen
##skultur
drikkevand
game
##oderne
endog
træerne
##elund
trykt
##glemm
skiftende
##win
##princi
frafl
impor
kalenderen
refusion
indimellem
##44
##læse
feber
##look
betydet
derover
oplad
landsbyen
intu
##vendte
eksamin
##ighederne
tilkøb
##hug
##klip
primær
cali
##elskaber
bemærke
tilpasning
konsulenter
lilla
østlige
forsvare
viking
drab
kollektion
partnerskab
##slund
##stider
interviews
2011,
tilbringe
kulde
krydser
allerbedste
##rids
stadigt
##lesk
opkøb
væggene
øresund
##tilstand
teknologien
jesu
##edia
stel
progn
##pasning
anmeldt
henvise
forlænget
bemærkelses
jysk
karri
sydøst
forgæves
erhvervet
accepteret
##virke
##dragt
##forand
##soci
##ikation
motorvej
fremstille
forbeholder
##skes
provok
førstekl
bæredygtigt
beslutnings
bekendtskab
##akker
anførte
republik
##inks
##rrrr
##givne
programm
genoptræning
udr
prag
##jysk
myt
ledes
venst
##æster
gend
##endomme
bjergene
##agede
skæl
landmænd
ledighed
##ulerede
brændt
nutidens
##hosp
opm
##ydelsen
tilbagebet
høf
2013.
turnering
udmøn
##lon
party
suppe
##univers
##eddel
berømt
##sfolk
life
##smanden
ambition
påbegyndt
følt
##økonomi
månedlige
marken
kærester
workshops
##faring
slemt
forlænge
kunstneriske
anholdt
turisme
strømmen
jen
##æssigt
halsk
nerve
deltagende
kanon
##endommen
skjorte
##tisme
##våben
balkon
sodavand
syet
desper
##erej
##veksling
respons
aktiviteterne
solo
løkke
aktivering
førsteklasses
3,5
drager
ansøgere
##falder
##ygende
bølge
slidst
byggede
ye
##amera
elsket
blogindlæg
##ensigt
målene
titler
kedelige
##uth
oplag
streg
session
spøg
drivhus
##konkurren
eksklusiv
reflekter
favoritter
##-30
mobning
materiel
ændringen
##76
**
##ovne
udland
##ugh
("
##orge
besidder
busser
formået
fornemme
persondata
rydde
nummeret
gb
frisør
undervisere
chr
##jorte
tredjedel
forsikrings
21,
overh
manif
jødiske
hukommelse
##78
##klagen
##garanti
uændret
##itteratur
mt
##uide
##3%
89
hyld
##borger
gardin
skjule
indklagede
##olo
##ræft
oplevelses
planlægningen
eksistens
bygningens
##amerik
relativ
bacon
hovedstads
energibespar
harald
udførte
overflød
performance
alternativer
##spul
hersker
mangfoldighed
350
##ummen
klæd
manuskri
forbruget
sløj
dogging
##urk
##aldrende
nydt
referencer
full
gramm
lovlig
cub
##orgen
##østen
##ømmelse
protest
assistance
bibelen
##tie
entyd
sax
rigs
tilbagek
mæt
sure
work
tjekk
beskeden
##advokat
perler
handlet
talrige
ple
sænke
moduler
undtagen
posted
wordpress
længerevarende
koden
##spær
layout
forsvinde
##ejere
wall
vesten
opfattes
teoretiske
##ssystemer
christians
ts
rækken
smiler
##holdenhed
##produktionen
##nit
soph
tripad
forsinket
##bra
mentalt
meninger
begrundet
rar
antibio
munk
##køkken
##shoppen
##abeth
brødre
rådgive
hotellets
arbejdstil
obligatoriske
anser
gluten
koncerten
arkitekter
##syk
##ænket
puder
youse
føltes
##overskrid
rednings
arbejdsmilj
krigs
sankt
fran
udbed
ihvert
armbånd
overvægt
brugernavn
pladen
globalt
sammensæt
sætninger
forsendelse
tripadvisor
skør
indrette
sexliv
ukrudt
##km
etiske
bilens
##osten
genrer
udstrå
skruet
sporet
##alem
iøvrigt
overvejet
indbyggede
##pligtig
hopper
vennerne
befolknings
opdaterede
faser
rønne
##styrken
stjålet
##kore
feriel
massiv
betragte
##ninge
ophæv
##elles
lynhur
skruer
barsels
udfordret
##tilsyn
overnatnings
##1%
ørken
##smiddel
charme
ålborg
afvikling
jamen
lotte
##otten
brøn
uforglemm
festivalen
retfærdighed
krone
##værelses
indsamlet
did
puss
grine
afskaff
overlever
##gøring
##indkomst
125
forest
//
see
udflugt
egenskab
##kompeten
djursland
##raktik
ordrer
period
nøjagtigt
ekstraordinær
175
tasken
forfald
musikere
teenagere
usyn
borgerens
handlingen
tiltrækker
##sministeriets
sammenlignes
79
??
##strand
sønnen
knapper
indsætte
prinsesse
gis
##kateg
arbejdere
##rængt
afslutte
afslutningen
celle
##asserne
operer
kartoffel
##affel
nedlagt
##64
##betjen
vinduerne
##faciliteter
##urd
##dækning
kaffen
vinderen
aktiveret
retfærdig
sog
fetish
afgr
##derede
##ington
2010,
eksisteret
##cs
cpr
erstattes
##historien
akupunkt
uoversku
##how
##imer
betegnelsen
##mit
bt
##sgræn
oprigtig
værdifulde
##hjælpe
nordjyske
sony
##vokater
meddele
demonstr
##jagt
røget
##trykket
lokalet
##helm
fos
##elærer
angriber
news
såret
udgivelse
mp
ikk
like
synligt
taletid
##omo
fore
hill
ingefær
talenter
trådløse
placeringen
rehabilitering
dødsfald
absor
læben
skynd
byerne
komfortabel
##0)
##eling
løgn
##skrævende
##hvid
romanen
forældrenes
indretningen
##hm
deleg
honor
##ulerende
redaktør
pix
wir
##yndige
tinder
##vækkende
tilsagn
stockholm
##bekendtgørelse
kampagnen
ubegrænset
blogger
uheldig
##forretning
indholdsfor
regnskabsår
##kirt
skæve
podcast
##ikationer
grundlov
##ula
##house
afvise
anvisninger
brude
varede
mistænk
##indende
maleri
bevidste
##axe
road
rigt
griner
afgivet
afrikanske
lønmodtager
##aton
##agens
nærhed
##leb
fordeles
refleksion
uenig
kvalme
passiv
tavshed
##samfundet
##stjenester
kik
bevares
##relse
##sfuld
##1:
lomme
onani
datoen
uddannelsess
##gri
rang
##komsten
indgik
##trædende
families
bønner
sigtet
##ikop
else
dispensation
obligatorisk
##cover
inger
musikalske
stikke
uhensigt
vanskelige
##aj
##frø
##brun
##linje
hævder
afgøres
alverdens
udflugter
tisse
##sbekendt
##hastighed
fordelene
kommercielle
##stri
sygedagpenge
dilemm
tjenesten
suge
##bryder
berolig
formidler
betalingen
kombineres
underskrevet
##air
##endet
biologiske
ejendommens
bå
portal
regnvand
sup
late
lev
##agter
fejlen
fortryde
##temperatur
inklusion
romantiske
##roner
egnede
navigation
sammenligner
sågar
margrethe
##hem
##sklasse
struer
supermarked
##hh
##kkels
##modellen
genkend
hamborg
forretninger
##rent
cost
nært
stævner
##konstruktion
##ebu
##mør
##fordeling
julegave
2/3
glimt
parcel
dollars
udfordringen
84
25,
rad
##terier
enter
provin
##bang
##inske
##sekød
stir
kampagner
underskrift
ekstraordinære
cum
##ømmes
##semp
californ
definere
klient
manch
##kvinder
##lod
udøver
rettighed
##hing
repl
kørsels
versioner
formulering
##dl
##usse
kirsebær
retro
kronpr
lander
slottet
##mur
##ways
##teligt
sulten
yousee
konfr
likvid
udbrud
##ups
##tiller
drømmen
interiør
semester
##gulv
10-15
glads
sønner
parkeringsplads
vek
beregne
##zo
2012.
dagligdag
iværksættere
##ates
klaver
##smassage
kontrollen
adm
ikast
lejre
konkurs
tænkning
fattigdom
grundtvig
allesammen
fuldkommen
##egul
##egnede
medic
statsborger
hjort
sitet
tjekker
disciplin
##gens
##redet
medarbejdernes
##arin
cec
##enheder
hårdere
##skøn
fysi
##familien
brændte
forsikrede
jas
ey
##deler
energiforbrug
##tru
##uddannet
forvaltningen
##bræ
bin
mikrob
opfører
trådløs
uundvær
##ating
blondine
menneskelig
##mf
ikea
hyr
cafeer
finalen
påkrævet
motorcykel
offentliggøres
##fler
##ppes
##jakke
akkredi
bukserne
opgørelsen
##yo
tilfl
montere
patientens
behandlings
konsult
vintage
fleksjob
evig
kvindens
##")
godkende
##ato
ube
sæs
samsø
knaller
##cirk
##sprisen
sædvanlig
##drup
forfri
prioritere
##kul
medvirker
gall
ubrug
flyder
intime
villige
udnyttes
københavnske
##iges
spins
sprang
##medicin
jernban
ovre
birgitte
næringsstoffer
pålagt
derinde
kneppet
##usser
udsolgt
opkræves
førstehjælp
færge
gerningsm
begejstring
##sides
timen
##beskrivelse
100.000
knepper
tyskerne
##grundlaget
ubes
novelle
psykiatri
##''
##hov
svigt
##ikk
nad
tastatur
besøget
benyttede
individer
igangværende
##hunde
##kreds
reder
effektivis
mobiltelefoner
##ygte
##master
rører
udformet
vip
##etagen
engagerede
konferencen
polske
markere
arbejdst
##31
##årne
frekvens
rejsning
##larer
##ommes
steph
økologi
modtages
indberetning
##skue
bow
##rings
##plantning
annuller
kombinationen
##ands
##fterne
gødning
absolutte
billedkunst
hjemmelavede
##ampoo
##festival
nedsætte
mønst
##arkite
kriminelle
170
inc
befrug
folketingets
karakteristiske
##inkl
stau
##styper
##ificering
##ssygdomme
nysgerrighed
cons
ling
rosa
##rådets
blære
undrer
besværligt
##lest
prisk
katten
skæres
udskiftes
øjeblikke
ihvertfald
traditionen
stald
##3-
##onisk
råbte
energis
##husene
night
fejrer
forstærker
hert
kammerat
forsikringer
rekre
kontrolleret
specialister
##ppede
indgående
indikerer
##:-)
##løbet
##blomst
omgange
demokratisk
##adset
drog
odds
##bre
##anet
opsam
ophavsret
testamente
##5)
biom
manip
resume
sæsoner
budt
az
##irke
vasket
##valtning
forklaringer
vaskemaskine
vet
dybden
##direktiv
alf
pulje
outfit
##faldende
nationalpark
cow
##agner
##ækker
1930
##smøder
putte
binder
udløber
holdbar
tilsættes
offentlighed
##48
blu
tolk
cyber
delik
elend
associ
fordob
legend
fagfolk
skemaet
kanin
konen
##/6
##titu
##delte
gris
##igtige
##båd
##ila
##telefon
pasform
aktivere
sekretariat
foss
afleveres
elegante
container
vigtigst
fremtidig
funktionelle
##mælk
dvær
næring
dyrlæge
håndtag
kvanti
herreg
udtalte
ophører
##49
##hej
omdan
svine
figuren
aktivitets
indvendigt
søgeresult
enhedslisten
##see
##forst
ruter
takst
lovede
##uo
1920
fjen
##ødende
##søgende
foreslået
##aria
##mede
elektric
sygehuset
opdateringer
##pyn
##norm
##aranti
betydnings
##direktoratet
opmærksomheden
svig
fucking
sos
##igeret
##ularen
konstitu
motorvejen
##hat
22,
ruller
science
utryg
##klubber
signifik
matem
style
indust
blander
content
musklerne
dol
sier
sædk
william
tilbagem
bringes
visning
afvikles
opbevare
,00
##shjem
henriksen
##ants
byt
nut
##elsest
nægter
##din
årevis
overgangen
##ku
tryl
##svalg
appen
forme
opholder
strømper
ambitioner
spørgeskem
##kug
støvsu
omgående
##pay
papiret
forudsig
synspunkt
##/7
##heim
##sned
##ævnets
nemid
medført
mountain
returnere
##lets
##spej
kaos
renoveret
##producenter
vestsjælland
opvaskemaskine
hiv
regul
vejlede
åbenbar
linie
sommerhuse
61
##kontor
klaret
##gørelsens
##arrangementer
dykke
tex
rive
udvider
revideret
##sløn
##lærte
##rerne
##venner
anbragt
schmidt
trykket
##beskyttelses
andelshaver
##war
##agers
overførsel
##nok
kostume
##ifikation
mundtlig
##nar
konsistens
forord
luther
fortolk
##heds
##ellerup
uddanne
##læring
##skæring
planten
<3
oplyses
casinoer
udskifte
henvist
klageren
grove
meddeles
##tysk
juice
##smerter
skyd
##parret
nybeg
##historiske
indvendige
interviewet
##:30
##lee
##kolle
##ladet
gaar
statsminister
py
veks
haha
kæmpet
skrivebord
##grib
plot
stilarter
##sner
##sdato
litt
massive
tilbaget
udbredelse
##.-
urter
adskilt
bn
styl
forvær
studerendes
room
vanil
##estedet
##talende
##kød
##format
engel
danser
eksistere
saal
poser
sarah
##tagning
mestre
vægter
afgiver
als
jævne
mirak
hviler
rådgivere
rov
knus
##retningen
sekretær
##ei
udvides
justeres
fremstilles
ext
lob
##armer
##maler
besvaret
komfortabelt
gemmes
lommer
tilgod
gladsaxe
insekter
##horn
gaa
##ygninger
kosten
informeret
##temp
tests
##edition
bærende
kortvar
fryse
gårde
rykket
græsset
thorvald
meditation
##card
##elight
##10.
gryden
runder
sårbare
udnyttet
5%
påt
##nering
##bringer
##havende
ringet
hentede
82
1990
##dette
##abilitet
tul
indkøbs
##pakken
stave
glider
guiden
plantet
prioriterer
forpligtelse
##okal
torv
##ebjerg
tilbagebetaling
opgive
tungen
##/8
##lærer
bakken
##noveller
ualmind
efterkomm
undervise
##afhæng
renten
##menterne
tidsrum
hidtidige
introduceret
##gørelser
fængslet
håndværks
regelmæssig
##cal
begå
##vision
maves
vågnede
dron
##bidrag
folkeskol
mikkelsen
ødelægger
##egr
seje
forsørg
##bevægelse
webstedet
registrerer
##abol
mellemstore
forbindelsen
##/9
##spis
sexlyst
##hts
ist
akus
##star
##klædt
tele
trail
akutte
landsb
stribe
tommer
søm
drink
afviser
elevens
overkomm
supplere
belægning
tales
fanden
langtid
cecil
hormoner
koll
rørt
afghan
uddrag
ombygning
##slys
media
##elskabet
##akers
ambassad
jyllands
##kka
elis
helte
basale
overholdt
hospitaler
badekar
forventningerne
##sbud
##ældet
skrald
plakater
fif
##fasen
##ternes
jeppe
##umenter
skubbe
hemmelig
rustfrit
##institutter
sædkvalitet
##virk
##redes
##kampen
holly
kloge
vågne
betalinger
underlag
fis
##seret
surf
sanne
01.
##light
åndelige
intelligens
omsætningen
##camp
ejerskab
budskabet
tankegang
konfirmation
kontr
hvormed
gæng
##første
jævnt
moderat
tomater
videres
vigtigheden
hellerup
sr
##drene
citat
snapchat
##organisationen
##dør
##ventil
1997
key
##ordet
kram
##indstillinger
##centr
force
porteføl
klassiker
##lign
gælde
##ression
##emaskine
fornyelse
kommentere
nysgerrige
overskydende
amts
glans
eksemplar
emma
uber
wild
slukke
badet
kvalit
passet
differenti
##overskridende
##-16
aer
first
##byggede
løftet
medregne
truet
designe
kw
pj
##misk
tam
##forhandling
certificeret
##tien
##sejer
sære
sejre
##amentet
magisk
børnetøj
opsigelse
##sbo
##kirke
kontrakter
opgøres
rugbrød
opførsel
stikkont
alexander
##mæg
##bilag
##anisme
abort
exper
pressede
dedikeret
cab
##edler
masker
nyttigt
trailer
børnebørn
geografisk
sommerhuset
cph
##usalem
##ledelse
beskidt
sejlads
udbredte
garantere
##itime
##shirts
afhjælpe
##kjær
biog
derud
##sprogrammer
##-14
##ænding
dufte
opholdet
aftes
mathi
manuel
museets
forsvarligt
##nik
4-5
##allen
seni
forhøj
kreativt
##ressource
##tæ
##kurser
eftertr
##håndtering
##junkt
##udset
tjekket
håndterer
reservedele
##rov
jok
undertiden
71
boksen
eksemplarer
##vans
satell
hip
meters
oksekød
##gennemsnit
beskrivelsen
##øbet
bart
blonde
##værksted
tekstil
klienter
##arre
offens
potter
enkeltes
##udstilling
involverede
tilbagemeld
koncentreret
tilbudsgiver
registrerings
##odt
##skn
4:
##citat
lisbeth
overskue
kompensation
aspekt
bronze
berøring
udskrift
præcision
fros
infektioner
ask
tomat
bevist
overtager
##ssvar
##formet
##esterol
ledning
opføres
utilstræ
deaktiver
undskyldning
##pro
##sem
##regnskab
kvindes
optimering
%,
gyldig
ansætte
markedets
krisen
keramik
passerer
planterne
forholdsregler
sushi
hullet
kurt
##ositioner
rummelige
fordelingen
##mød
##idas
##sche
trå
##museum
##præget
psykologisk
tilværelsen
##amenter
ytring
understreg
##bli
##iserende
diskussioner
vidunderligt
##slår
##øvning
salen
##sorganis
fremstå
spændings
uf
håndklæder
##administration
##okale
saft
take
##stræning
##eminister
indsamle
plug
2009,
kirkegård
##odel
##måned
vældig
optræde
##vamp
bræt
linse
diagnosti
##46
##aby
hæder
##ete
##alth
##søgte
buket
gynæk
smelt
kabler
caroline
responden
indtjening
afhængighed
tub
##ekort
trends
sammenfat
##ænget
fysioterapeut
sir
##istand
buffet
justin
nikolaj
foreslog
##ksp
##usi
guddomm
nøgletal
dramatisk
##eskyttelses
overskuelig
identifikation
galax
husleje
##bygninger
voldtægt
medfølgende
skandinaviske
##alat
slaver
kroniske
##away
##athon
udnævnt
indsamler
udfordrer
varetages
24,
900
##panel
##forbud
takker
##osa
flo
jane
##rejsen
ensomhed
undtagelser
##dvs
oce
lune
##sdagen
barer
uventet
fagforening
##eds
##skilte
scand
fejlag
##cle
blæse
fristen
indiske
bekendtgørelsen
øret
flyet
dry
udmeld
##indsatsen
##isolering
aktiviteten
satse
##erhverv
mexico
trapper
betragtet
modtagelsen
sundhedsfag
vurderinger
##ovs
grimme
tommelf
landsbyer
udsendelse
##ræer
fut
##uktion
centre
uundgå
låner
stine
kinder
fornuftige
elektricitet
blogs
bemærker
mellemtiden
skelne
brasilien
92
##view
##ology
hjemsted
##sky
drøfte
betændelse
kunstnerisk
##rænet
leif
udvendig
varierende
##tak
##vært
klem
##ashion
bærbare
register
kåret
iver
##otokol
hensyntagen
blank
høres
##spektiv
venstrefløj
magiske
stråler
vie
pude
indeklima
##ktør
nabol
opvækst
##politiske
##æller
arena
ferier
school
neutral
opholdt
tablets
eksperiment
##stik
30,
fix
hva
##lagen
erst
pege
latex
dollar
rabatter
slaget
straffe
irriteret
teknologisk
betalingskort
##col
##koder
spæd
madrid
##resultater
##team
2008,
garage
bredden
fremmødte
udgivelser
##ova
##ielle
bedstemor
kle
##gaden
##lysende
væd
ærø
##illede
fisken
katrine
velfærds
fabrikken
forklaringen
gust
etape
albummet
konsekvent
christiansborg
skod
##kysten
dømme
griber
fjorden
inddraget
langsigtede
naturstyrelsen
anat
anmode
##ize
aa
##urat
##endal
afbetaling
undersøgelses
##itim
##last
water
##nummeret
##tilfælde
åbningen
##færen
##røret
kajak
lejet
oliem
udledning
##offe
30-
bum
idi
skærer
nørg
otto
skån
filipp
introducer
bygningerne
##igelse
påstå
process
kår
smal
metro
##forsker
donald
shoppe
stolthed
sene
sænk
##pigerne
finansk
##aretter
trængte
rejsebureau
lektor
##neg
opsu
tildeles
bisp
##estemt
kroppe
seminar
dirigent
organisk
godtgørelse
##stjerne
faktur
##slutning
skuldre
handsker
resultere
##ekød
skep
##sfrihed
sammensætte
skuespillere
##fur
##brem
overlæge
udsendte
bekræftelse
geografiske
problemstilling
##fem
##søgt
båret
weekender
##stole
brutto
civile
##musk
fordøj
##akes
##hvide
hypot
skærme
bestræb
drejede
ugentlige
bestilles
prostituerede
besat
reserveret
knald
udbydes
##københavn
orientere
##helt
slagt
kondens
##stilstand
##universet
##beting
screening
afhentning
alter
george
##shospitalet
##okset
meldte
øvre
givne
blandede
landevej
solcelle
uddannede
videnskabelig
##æsonen
gylden
mærkelige
##kabet
etnisk
##tjeneste
irritation
langsigtet
wien
ultimo
vaskes
mesterskab
wash
forklaret
##jf
fy
##sæde
bbr
flir
bevise
##cial
##menu
hale
marx
konsul
vandtæt
##47
##præm
ansøge
sengetøj
##sol
##aldo
blink
depot
stykket
09
##urgte
##menteret
##indtægter
##transport
indgåelse
##høje
sejlede
stresset
hyppigt
portugal
pengeinstitut
##inker
puljen
buske
sanse
lemvig
nævnet
##timering
transform
smitte
sigende
justering
positioner
hag
skide
ejerne
kærest
blikket
mortensen
christiansen
illustration
medlemsstaterne
jar
roll
pointe
##/11
fas
3000
##tidigt
aftag
river
##version
kontorer
medbring
særdeleshed
tilrettelagt
nud
liga
##lak
gigan
stere
contin
##:>>
slæ
lopp
trappen
##orf
97
ein
jet
galaxy
udfyldes
kontanter
årsagerne
interessenter
##ængder
murer
forenings
ændringerne
fen
##spsyk
vamp
##fristen
grebet
sprøde
drøftelse
##sliste
lilleb
ms
goog
hvisk
##økonomiske
platforme
omverdenen
konvertering
strategien
tilfredsstille
dommen
transm
control
##fæld
hjørner
produktioner
rap
gætte
linger
høringssvar
distribution
##ides
bønder
betjene
hindbær
tidsskrift
resulterede
nas
fejler
vinkler
##ragte
##ræner
##stype
kollegi
flotteste
investerer
arbejdsdage
forbrænding
forsinkelse
overbevisning
kwh
objekter
beklædning
##ush
ingeni
##aug
ges
drak
##firmaer
hygger
medium
styreg
informations
##steg
got
impul
domina
ryddet
sanser
formelle
magasinet
ajour
arkiver
sagerne
##inas
##amfund
vejene
miljøer
bekendte
øde
##slivet
##slåede
bekost
ydelsen
psykoter
autentisk
nb
##edning
##gjorde
nicolai
insister
pædagogik
##nær
##inkt
leon
nydes
forkøl
sprøjter
forældede
højesteret
ydmyg
fornem
kasserer
virksomhedernes
jal
##brusk
maske
asfalt
udspil
højttaler
landskaber
skræddersyet
##usivt
##knappen
gennembrud
usædvanlig
##skibe
##splig
##esø
cir
##gamle
foruds
musikalsk
##blive
biologisk
medlemmet
besvarer
relevans
områderne
laura
kvittering
intelligent
5)
nytårs
klarede
opgivet
adgangen
##sforeningen
##repræsentant
##anser
djæv
drømt
dræbte
ink
lur
skur
fortrins
jerusalem
obligationer
klam
tælle
mindret
arabiske
foreslåede
hier
barri
dyret
##rigtige
antyder
afsløret
stemmeret
indvirkning
badeværelser
##asp
##itch
##sbesøg
finansiel
kulhydrater
fremtrædende
handicappede
totale
lokalområdet
##poser
carls
ordens
hjemløse
medtaget
vildeste
##88
skrøb
etableringen
struktureret
øjeblikkelig
suger
stævnet
komplette
lovforslag
specifikationer
maatte
nyttig
chauffør
opdateres
psykologiske
##undervisningen
smith
kompati
ræd
##smetode
lugter
farvest
efterladt
omb
udviser
esk
rok
##osser
vall
##ivende
fedtet
aktindsigt
ubehageligt
##imming
udøve
bøsser
langvarig
flertallet
kompens
involverer
tåler
dorthe
kikker
folkeskole
høns
main
allerød
##gs
##tav
argent
##patienter
redegøre
##ril
kvm
troet
##kli
asia
kløe
assistent
regionens
73
##delser
##handlere
nedsættes
kind
variant
##steknologi
forvirret
kontaktes
forespørgsel
##iten
blæst
##sproget
ånde
dragør
vandrer
erkendelse
vejledninger
oslo
bruun
dialogen
suppleret
blandingen
##ect
##rip
bortskaff
##uni
##aldt
##oween
dtu
##illon
##tales
##huller
##lænder
##brogade
udløser
##mas
math
ulla
2011.
##delings
tilbuds
fortjent
fængsels
indføres
tilstande
vindmølle
##kko
##debat
##ænken
##eløbende
##egne
bost
holger
belgien
persondat
##infektion
##5%
##kund
mande
løbetid
visioner
fortryder
##dyg
##vivl
##waren
##eksamen
##vejende
orgasmer
soveværelser
##ugten
masc
poet
præstationer
forhandlingerne
magnus
ulykkes
##historisk
understrege
fremgangsmåde
sak
##streme
watch
afdække
forrygende
turneringen
kvalificerede
##...)
she
undre
webshoppen
arbejdsmarkeds
##bjer
kid
savn
spids
formet
påpeger
stationen
##støt
dæmp
fanen
slanke
diagnosen
richard
brændeovn
tod
forlyst
##terras
kammerater
##egruppe
opfind
efterspørgslen
##42
iran
solide
kulturen
mekanisk
mellemøsten
samfundsmæssige
##måske
hæver
højder
##givnings
##ningsanlæg
kortlægning
##tech
fods
olymp
minoritet
##hedsg
##ommere
##styret
katja
##formede
disney
kemisk
arrangerer
forbrugeren
##skan
##aborg
##order
messen
##66
:-
##skolerne
sideløbende
kysse
lederne
##istre
hart
visuelt
kristendommen
##mte
dur
mole
stok
panel
korrup
kunstig
##vejeb
gene
##balance
##fodbold
børste
klipper
##byrd
##frygt
fall
##risten
##udvalgets
tyng
2010.
fjender
##ektar
##rapporter
##.:
##øvende
##krop
##sand
23,
caf
grillen
frækkeste
tilmelder
embedsmænd
sekretariatet
##gre
tolv
fonde
husene
afdelingens
summer
gartner
##inspektør
afviklet
indskræn
redigere
speciallæge
nick
irland
##raf
adhd
erstatter
forbedres
##asten
##ultet
##skasse
opførelse
campingplads
pornografisk
problematisk
ubehagelige
raske
ondskab
slikker
blo
reflek
spektak
##-17
##neth
##meget
##sbrug
porto
behjælp
overset
##ville
blandes
saaledes
tilvejeb
fredensborg
##kerne
makker
tilbød
##ituationer
grønlandske
bande
##jordens
##sbestemm
udgiften
tilstanden
##blev
##tist
##otion
##staten
biogas
##osh
##uan
##less
mont
uhyre
##osteron
overflad
arn
chec
libido
bevarer
reguleres
##ekur
fam
friis
afleveret
##dike
##elys
##sbolig
finish
kompakt
mindful
coaching
bestræber
dc
##teknik
legitim
kompetenc
##aux
##årn
råber
##mærkning
mile
litra
skævt
johansen
servering
##ij
##anny
##adfærd
kviklån
tildeling
miljøstyrelsen
08
coug
palle
europe
bjerget
minimere
skjoldbrusk
komplikationer
##alon
##størr
arve
bjæl
coop
logisk
gentage
tilbragte
regionerne
##orie
das
kjolen
alliance
vandværk
autoritet
juleaften
tværgående
forfærdeligt
isk
sats
fynske
afbrudt
kontoen
hastigheden
head
købs
##opgaven
klasset
lokalplanen
menighedsråd
##elavn
##overv
objekt
skolet
##event
##økken
omend
knogler
forlænger
hænde
tramp
humoris
kastrup
25%
krom
##ugning
milliard
solceller
##ftede
##tagne
låst
##havnen
panik
dyrket
slanger
alufælge
formater
tilskuere
arbejdsgivere
(2)
##frugt
korre
slange
stramt
kendsger
regional
bogstaveligt
##aya
5000
##kørende
1995
afbud
grise
underliggende
##but
##bass
karsten
illustreret
biblioteker
179
##største
##edie
##chefen
##ærerne
##ascript
advokater
##søen
##bergs
indp
dræn
bevarings
sexnoveller
administrerende
klud
##grænse
omega
bladene
følsom
anmelde
skyldig
dommeren
grafiske
undertegnede
##4%
gled
know
rejses
dankort
eftersyn
tilslutte
##lejr
kick
lækr
travle
##shistorie
##reds
chic
long
##hængere
gensid
kurv
indkom
vanløse
bugt
intensiv
uddannelsens
##æler
gin
##legen
1996
rejset
referer
vejrtrækning
##været
varmepumpe
##round
drinks
classic
åndedræt
utilfreds
planlægges
##-11
##/12
nina
broch
fryseren
##elsæt
##prøven
blide
spredte
værkstedet
producenten
##oge
htm
##vores
tort
hytte
##mærkede
forfra
nordea
biografen
middelalderen
sner
kjeld
##oriserede
##rådgivning
bagepapir
automatiser
##aturer
egetræ
##gier
1500
blæk
teorien
tilsyns
formåede
##smodtagere
finansieret
##kok
##ories
skadet
markerer
jud
award
pussy
bølger
monster
halloween
##sprøve
jette
afrund
mærkelig
##sprogrammet
##ænen
cann
fordelen
##ely
lap
besej
paras
prøves
tyveri
mineral
cyl
pynte
værne
##rækning
##sløsning
##tryks
##atikken
##sprofil
##hy
##ruder
elle
privile
fastelavn
indsigelse
ufat
##bakken
rutine
forring
manglen
nikkede
udredning
bodil
ringen
lie
kalve
snavs
matche
##holderen
##sforslag
##lejligheder
##ags
estim
graver
pauser
javascript
kommunikationen
##bevar
grim
tros
skjern
bilerne
dannede
ekstreme
40%
kogt
astma
afklaring
aflevering
eksklusivt
##span
neger
brevet
##herunder
henseende
##iderne
##ikeren
whisk
territ
spredning
indsatsområder
selvs
smykke
ansigter
ferieboliger
abo
bing
united
varmere
##estyrelsens
##cha
agf
##sejere
redning
reserve
følelsesmæssige
##onere
##boksen
##iddende
resort
strømp
##ute
amu
opstille
nokia
amerika
##finansiering
heter
overstige
1940
benyt
moral
præpar
spænde
hjælpere
påvirkes
størrelses
modstandere
drik
2007,
kanel
amalie
misund
bondage
mandlig
naturgas
##politikken
organisations
strækning
indtagelse
jernbane
feriebolig
interaktion
opsparing
samlingen
##arts
##skest
æres
indse
biseks
linjen
menighed
spilleautom
##sys
signe
sneen
påhvil
ravn
##entiale
##sprojektet
##room
teams
sandaler
toiletter
##0%
ft
vha
##lines
ikrafttræden
80'
spray
##aw
##oger
##håret
derhen
digter
foresk
afklaret
materielle
årsrapporten
##ving
ultr
image
stegt
forenede
forsvars
defineres
skulderen
formiddagen
nødvendighed
pp
tok
nåde
##lister
##priserne
optræden
ordreside
bemærkning
uj
##skommun
udgrav
afsluttede
##tekster
lønnen
etniske
mobilitet
##gy
bøv
nato
##nødder
stødt
nørgaard
garderobe
biblioteks
##9,-
##sfæng
easy
##jordenssalt
##sgave
north
dumt
taxa
håndteres
kommunalt
strukturer
afghanistan
oh
bech
care
larm
urban
prostata
værdipapirer
bbw
##filter
##grunde
varetægt
##arrangement
##43
##æste
##faget
matas
gangbang
##scen
hive
saad
##ilding
##smålet
spilleren
forførende
videnskabeligt
##cafe
##urgt
faren
peters
folketings
ægteskabet
frederiksen
##ærg
årti
ilden
##elisten
rotter
faaborg
svarene
bortfalder
forsamlings
efterspørger
##ays
##irur
##lysning
specialiserede
upå
##ramte
##jakker
##ositum
evige
fremsat
mandler
##forbundet
strækningen
##øf
fron
##navnet
facader
velkendt
onkel
casper
pligter
tillægges
##klagenævnet
##tradition
konflikten
bolde
mexic
indgås
svinger
katolske
opsamling
slutning
langeland
anerkender
##igu
kof
##gårds
kursen
hundredvis
moment
##sætnings
medførte
udvidede
invitation
universiteter
0%
6-
##remål
##hørende
udfærd
ydeevne
fertilitet
##fog
##rap
##stræk
##træner
dræbe
sparet
reflektere
kau
##feldt
##metal
parker
branden
shampoo
aftenens
direktøren
eksponering
kede
lomm
skuffe
##lingerne
websites
diskuteret
formuleret
beregningen
##tene
##smuse
evidens
forreste
hudpleje
undertry
##gud
##mose
##lavet
jura
drukket
tilføjes
webshops
hurtigste
nøjagtige
redaktionen
øjeblikkeligt
dersom
samråd
sørget
tommelfinger
##valgte
narko
klitoris
##omener
##central
rammes
dobbelte
tjenesteydelser
##deres
adap
lort
olesen
akkurat
udfyldt
hollandske
grød
metod
dufter
ærlige
meddelte
mundtlige
attraktioner
##hurt
##juster
hæfte
##handels
beskæftige
kolesterol
bænk
nøds
muham
fashion
lænd
fladt
genind
skades
indkaldt
skak
##kalder
begrænser
overholdelse
##antal
##fjorden
fyldes
##tjenester
##tgen
10-
lås
##meste
sødme
græskar
anskaffe
##sløsninger
kendetegn
universet
specialist
mosk
bryllu
cyklus
gængse
##portalen
nyhedsbreve
testosteron
##navne
##nette
banan
shorts
slukket
bornholms
udgivelsen
##kostningerne
##sbestyrelsen
krimi
udryd
##forvaltningen
roul
vådt
opera
skuffer
blåt
fugtig
striber
realisere
intensitet
##pel
##ovnen
årsrapport
178
##estart
mislig
##opgørelse
##atin
øste
legen
kaptajn
indsendt
##sey
smagt
samliv
ørerne
kenneth
lejemål
statistisk
joh
bleg
##ellerne
undervist
tack
##sprogede
luftfart
##auty
##behør
hængt
berørt
ferielej
klassetrin
præferencer
implementere
##installationer
##oid
##ureau
kursister
stang
foretrække
md
##læser
energir
mathias
akupunktur
koordinering
##67
diagnos
hverdags
karakteren
diskussionen
how
ignor
sprød
opkaldt
oplagte
##bestemmelse
##bøj
83
##ject
##miske
farm
##emiddel
pausen
##indholdet
appelsin
fortælles
påbegyndes
##alte
fersk
stien
brunch
deltid
marmor
forståelsen
##effek
kink
break
udsendes
tilbagevendende
jørn
##formid
##klædte
plakat
ridder
harddisk
##kommissionen
##smøn
vvm
##undne
kuld
dumme
sommet
smerten
sygehuse
tilstands
##4-
##sort
sebas
anklag
lommen
fedeste
antibiotika
overbevisende
##ache
hof
bedr
mønt
misly
##miljøet
airbag
hassel
krukker
##benet
##lange
afled
sundhedsvæsenet
reb
what
##vorter
rejsel
stripper
sandsynligheden
##trop
natura
troels
##forholdet
atmosfæren
gulerødder
værksteder
##ert
hef
vælter
scorede
xl
æd
##ynam
indtog
##standard
tiderne
udvælgelse
##defin
fremlagt
30%
##restaur
torvet
afslutter
rollespil
##rie
##egnelse
gående
nerves
rektor
##aga
helikop
hundene
frust
antage
reguleret
sommetider
##ægts
ios
åen
visi
bella
##kirtlen
fordeler
ky
brik
aske
##vinding
mursten
gennemsnitligt
##gås
sd
##pend
##ensyn
##vinde
##oniske
skoene
drøftet
ledsaget
prostitution
kommissionens
adidas
tommy
dråber
frigør
formular
##ituationen
forbrugslån
udleveres
fastholder
organisatoriske
##uiz
zink
tråde
venstres
##gir
##rivil
##budget
mødel
kernen
visuel
##esikring
##redaktør
##prov
dikt
##kirken
havreg
udfald
iværksat
dbu
appel
britisk
græde
##nderslev
opholde
regnede
##emperatur
##odkendelse
budskaber
##68
##elling
fyldig
afprøvet
mystiske
##pap
##pumpe
##rimin
hilse
erklærede
digitalisering
##mmes
##vere
ska
vane
##husets
autoc
ensom
knapt
måttet
wester
muliggør
fleksibelt
##69
5:
ypper
dagbog
valent
##rejsende
tykkelse
dop
bust
##eskift
tagget
montage
kørestol
navigere
forpligter
instruktører
komplicerede
##san
##akadem
vænne
##jon
26,
bmw
indad
logget
##virkninger
direktion
sydsjælland
mall
slimh
betjeningen
##blod
##turen
anken
tjent
blinde
møderne
spreder
spisebord
udskiftet
flybilletter
##porno
indtag
efterårs
##egenskaber
cour
herlig
indbetal
##stjenesten
spørgsmålstegn
##band
bnp
##immer
uren
hækle
placerer
koncernen
lillebror
sinde
klimaet
grænserne
omfattede
relaterede
##vari
cli
ejes
lamm
brande
granit
slesvig
sovjetun
##vejledningen
almindelighed
dub
fyns
stimulere
frys
toft
##skolens
intense
restrik
fakultet
vog
vedhæng
efterkommere
medlemsstater
##gevin
pile
søgen
udtryks
victoria
ubetinget
stimulerer
forståeligt
nål
rat
udsyn
renset
##arkiv
domæne
færgen
ledninger
omhandlede
##frek
byl
reager
kyssede
indstiller
olivenolie
##arisk
ects
øens
##ensens
skrig
savnet
rykkede
##profession
cere
rengøre
mandskab
tilrettelægges
hey
##udbud
##hansen
herpes
sæsonens
##show
##ental
ildsj
ulrik
##stationen
70'
##løses
lift
råbe
biskop
varmet
tredjemand
##2%
##hum
01
##dæmp
##gulve
myter
skræl
romaner
formuler
søgemaskine
##bild
##ipedia
luksuri
operationer
##merter
håndled
influen
spændinger
spisesteder
immunforsvar
konstruktioner
28,
religiøs
svømning
halvanden
pos
zon
##ælden
##agtede
ranger
visdom
swimming
indbygger
##reser
gigt
fyldest
udbrede
erhverve
maksimum
##ovl
##ovet
dgi
gil
##bevil
ejede
hamburg
variationer
skattepligtige
bente
klost
filmens
##12.
##inson
messe
observationer
bedsteforældre
##avl
nedsl
stilen
undersøgte
miljømæssige
dyst
juul
vilkårene
konstrueret
amin
lilles
streng
##egrupper
handlen
påhviler
beskadiget
##sfil
sovet
potens
snakken
udstillet
##kol
mah
##lutning
##tegning
fravæl
rystede
##forbindelser
snes
cafeen
israels
nedriv
##kammerater
ellen
oscar
##opperne
backup
flygte
umulig
prestige
livmoderen
tilstrækkelige
##cht
##ryl
hh
##tics
##mestre
oplader
hverdagens
omkostnings
mai
##ideer
##verne
grej
##eskolen
##sbudget
sigter
solned
logistik
##pigen
familiel
mir
##smark
puds
poler
##forholdene
vs
amp
##roman
##apperne
##kontoret
påtager
##redskaber
fordomme
tilskade
trådløst
##mails
##øgene
halm
senget
subjek
strenge
tilberedt
##max
##ønner
##hænger
korres
indtaget
lækreste
sognepræst
##greb
##borde
dennis
ventes
tidsplan
##gyld
cin
slots
forenk
points
eksotiske
opfordres
indlysende
skandinavien
##'-
stevn
restau
skorsten
investeret
optagelser
brønderslev
##repræsentanter
##orium
##ibning
##skassen
ridser
ordinær
popularitet
flis
lyster
sneakers
80%
bak
kål
##danske
skåne
##vidende
indkaldes
##stemperatur
kunstneren
magi
vade
##erslev
brown
##givelser
lykkelige
##ege
lp
orlov
##forurening
##gin
##hard
kugler
harmoni
blødning
henvendt
uønskede
depositum
eksperimentere
##nye
tin
##sagen
mejeri
lektioner
beliggenheden
##mek
##andre
raff
tape
sæder
##optimering
brysterne
egypten
røntgen
vælgere
samspillet
##scan
##ource
##kørslen
noteret
stilhed
dokumentet
nedenunder
##kkert
1970
inddelt
##ventionen
##døren
##barber
##invester
indefra
punktet
skoleår
##trædelses
ulovlige
fremstiller
borgmesteren
##klede
##riger
5.000
inflamm
##41
who
stryge
vietnam
bunke
##fronten
lodret
ordreg
propor
generer
videreudvik
##nn
##forny
knep
##uste
kass
##rutter
beher
##akademi
revolu
friheden
tusinder
bemærkede
disposition
fastsættelse
##vild
cross
sprit
##klædnings
opfundet
applikationer
tilrettelægge
##55
##ible
##steds
observation
demonstration
ei
##kvinde
edder
##føringen
energistyr
hensigtsmæssig
##ræg
##hvorfor
##æmpelse
##shospital
27,
kunstige
taknemmelig
atl
lud
##koden
barb
##emålet
fætter
forkort
lokke
##isation
##sretten
solens
fantasy
tilgode
forbrænd
udvendige
##food
mum
##filer
modstå
##79
sørgede
venskaber
vedtagelse
temperament
jam
kier
løftede
massagen
uretfærd
gød
##deren
100,
ialt
audio
pærer
##holdige
komite
indhentet
klod
lakrids
skyggen
massagepiger
50.000
anette
funder
ukraine
reformer
hollywood
##oskop
grev
watt
##hjulet
detaljerne
##pynt
afst
##shjælp
myster
transpar
##well
##bereg
nisse
afregning
##nest
##mølle
##perne
sauce
##skompeten
jobcenter
foreliggende
##???
pje
##finde
knude
optik
priskl
folkeoplys
malm
oliver
tester
arabisk
risikov
cro
##gjorte
fisket
virtuelle
styrketræning
campingpladsen
##ali
##smedlem
satellit
protester
##7%
##strakt
regnen
##lamentets
debatter
overskrid
udbygning
tiltrukket
samfundsøkonom
druk
sjæle
tvangs
##idtet
benet
regnvejr
verdenen
##ey
udbuds
ergonom
##fen
##serier
track
trøst
brandt
marine
overgår
umiddelbare
##æftig
faxe
##arealet
##etabler
krydset
paradise
aktiveres
##planlægning
1/3
meta
##sledelse
virkningen
ejak
opkast
aft
##emærk
intenst
befordring
kontrolleres
syntet
fangede
udvælge
overskueligt
nøgenbilleder
udgive
landsplan
forskningen
beskæftigede
##adere
ordnet
udtaget
kulturel
##institutionen
##rollen
belys
ledet
spore
##stationer
nemmeste
uendelige
dug
gyldigt
minimal
umiddelbar
##klær
uregel
objektiv
tredjepart
##ope
afbal
##ulykker
hybrid
messing
skønneste
fornemmelsen
##sin
tårer
sollys
udsætte
projekterne
##ican
elim
page
forlang
slettes
##billet
canad
gulvvarme
annonceret
##dum
dor
##words
paulus
tilfældige
sønderjyske
annoncelight
##sdal
assens
udarbejdelsen
##shaver
ove
hævn
cremet
hævede
universitets
finanstilsynet
##bind
brid
mach
humle
finale
stamme
##sbranchen
handleplan
tegneserie
1,2
esp
pære
sneg
panor
sjælen
premiere
udførelsen
##bagte
##skudt
klatre
truede
##position
sydafrika
tankevækkende
was
viby
##rettes
målti
saint
##ologier
massivt
##forfatter
refererer
##smaterialet
succesfulde
handlingsplan
93
showet
sindet
##leverandør
sponsorer
skatteminister
##udi
psy
twe
1980
kinky
truer
dommere
afhandling
nyhedsbrevet
##usik
##ydere
niss
vedtog
##wo
##læst
definerer
karakteristisk
##yttere
højttalere
mary
fodtøj
regnskaber
illustrationer
pølse
deling
kurven
##afgiften
hoveder
asiatisk
socialrådgiver
##zi
##region
brunt
uddybende
##inere
fortol
##producent
valgmuligheder
brygge
review
##rensning
syndrom
##uble
1.1
##ruktur
ordne
tempel
lingeri
##uropæiske
vedtages
åd
bøf
nordøst
erklæret
fd
rytme
mystisk
papirer
tatover
festlige
rensning
undtaget
forbereder
##gaven
øerne
##brow
kakao
låget
smelte
minimer
stifter
annoncering
##2:
##not
kredse
29,
rit
kampene
yoghurt
afføring
medicinen
stigningen
##emæssige
rummelig
forhandle
flytningen
jobcentret
målgrupper
søfart
ultral
##ety
##skerne
skrot
##skærmen
amazon
search
christen
carlsberg
##esc
##anas
oct
spam
flasken
indkvar
sammenhold
##def
##ilt
##istika
sexolog
undlade
datteren
kapitler
mercedes
extension
massageklinik
##cont
lum
pust
syner
erkender
matrikel
ophævelse
lynhurtigt
reparationer
sædvanligvis
##here
##album
bælte
pokker
##arbejderne
brystkræft
##eligvis
##lederne
guides
officiel
planerne
oversigten
iværksættes
##6%
##leven
gest
##jerner
oveni
amning
diskuterer
hovedregel
spændingen
7-
low
berus
hejsa
herover
initiativet
##skæl
##uick
pis
##klart
##sters
lyserøde
washington
##ship
##estra
befandt
reality
direktionen
reservation
##ated
##eline
hydra
nedre
##beke
##sfrem
debu
herpå
smøre
spart
servit
##stigning
tilføjelse
matr
fortab
tidsfor
ubehagelig
zealand
stemnings
##radio
gour
##edagen
conne
fælge
støde
kristi
##reformen
uafhængighed
##zoner
træls
cecilie
boy
##ænkte
erotic
pakkes
renser
bestemmes
lamp
##isses
##klasser
##smodeller
##forsyningen
##":
##wal
##----
koble
##offerne
autisme
plejede
ulovlig
overlevelse
købere
snacks
##eleje
##længde
løbere
kondition
åbn
##world
found
såmænd
##menterer
efterårsf
tænkelige
##aben
90'
hast
guder
droppe
lampen
##spersoner
signatur
1994
vagina
dannelsen
æstetiske
signifikant
lynlås
rettere
svaghed
svimmel
forbinde
##bue
æl
##skøb
bibe
##hvordan
travel
domænen
udtrykt
about
brødet
farmor
prioriteret
repræsentere
gennemførelsen
##festen
hertug
stødte
værter
hvidvin
litterære
snydt
hektar
apparat
foretog
fuglene
##nå
##årene
hule
riis
udslæt
herrens
nedsatte
værktøjet
##fugl
##hygge
barm
udfra
commun
dybest
sættet
ulempe
##litteratur
##bit
beat
##sanlæg
overbel
forrest
360
toy
brob
html
##ferenc
skrib
##kredsen
herligt
##ordinator
indlever
##ends
dad
##estop
self
jakker
mandel
kontrover
##72
ægget
##sprøver
##sproblem
##05
busk
##folket
##skabel
numse
krydderur
ekspedition
julekalender
beb
##alens
##ignet
##menuen
##spriser
ryttere
jordemoder
2019.
fedts
posen
frygten
legende
stabile
##formanden
transfer
besætning
uform
mælken
tyngde
##analyser
julegaver
sebastian
overvægtige
##kem
##attra
1993
##sering
invas
pålæg
sortere
opvarmet
ressourc
hjemmebane
##obi
##club
tine
apost
babys
korsør
skinne
afhjælp
variable
gåafstand
bevægelsen
indeholdende
##pix
##øer
##støv
pand
betegner
sidenhen
##eltoft
manøv
marer
polar
gastron
lukning
fastlægges
##lab
##link
##talen
arch
knallert
tidligst
åbenlyst
##bestilling
beslæg
indisk
insulin
bordeller
oprydning
selvstændighed
##nør
smags
tiger
preben
strække
fordybelse
##ae
##sfest
pall
køligt
tropper
besigtig
!!
##sbånd
young
##katalog
##landene
miljøg
vibrator
##amling
solrød
kopiere
spiritus
konferencer
##ett
##dress
##modul
ulige
basket
mønter
elevator
##kerød
##lille
##sling
agere
pålægges
##ørge
landmand
stueetagen
indlæggelse
muren
##ancerne
##udbydere
passere
syvende
progress
##afdelinger
step
##klinik
snyde
##apparater
cyklister
tilpasser
07
board
##førings
indsende
opvokset
arbejderne
##low
##erien
timel
##browser
amster
tørrede
fuldmagt
folkekirken
oprettelsen
##").
ari
##ærings
gravet
##kontrakt
student
proteiner
menneskene
automatiske
##ofa
##estole
sværd
afspiller
##cium
##ården
##væsenet
sommers
søndags
formulere
##øff
ideal
dagblad
farvede
##ople
udmat
forblev
spejlet
##my
),
hau
##spild
techn
forskrifter
##senge
naboen
læserne
terapeu
displayet
efterlade
forurenet
varemærker
psykiatrien
##pind
##eskat
##skoven
2.000
trust
opsigt
cykling
ergo
ungt
engle
beauty
påstår
utrolige
##zan
hua
brit
kollektioner
børnefamilier
%)
06
##kampe
##øgende
incit
clausen
gruppens
anerkende
genanvend
wikipedia
##ometri
##skønne
vendes
##egruppen
californien
usædvanlige
##/-
kf
lor
empi
2009.
snæver
kæmpest
opkræve
vurderede
##icer
cases
malene
udlagt
krystal
kærligt
landede
forbeholdt
fremsendes
kendetegner
farer
liberal
##forenings
århundreder
administrator
##8%
##yderne
##sæsonen
sortimentet
##.2
##regner
##rækket
sløret
##sforstyr
elefant
æstetisk
indersiden
gæt
abonn
belyse
screen
klarhed
brugerens
revisorer
evalueringen
dh
made
omhu
muskul
opsige
skylder
ugentligt
##!).
##bob
##tikere
jackpot
musiker
regulere
bygherren
studieret
meddelelsen
ledt
##indkøb
afrejse
fremmøde
andersens
designere
voldelige
dekoration
biologi
teknikken
##madras
døtre
flåde
##timerne
dagpen
massere
konklusioner
##klik
blir
flyv
##rængende
##mennesk
vandring
foreløbige
forfriskende
91
##bagt
##rons
##angst
##essen
kirkes
udsnit
føreren
sportsg
teatret
vedlagt
forfærdelig
##hjælps
spilletid
beroligende
tilknyttede
##akten
hair
##apital
cloud
loyalitet
smerterne
albertslund
##rate
overt
##hvilket
lærred
karakteriseret
##seri
1970'
profet
journalis
kundernes
##sik
##vene
energy
morges
rigdom
cigaret
foredrags
skoleåret
##uro
henri
stemte
annette
tegnede
midlerne
selvsagt
corn
kæden
vides
bedrift
styrkes
way
categ
cancer
krydstog
virksomheders
##saut
##sbog
walk
##sygdom
##støvler
ulykken
køretøjet
respektere
forstyrrelser
450
##brænd
##edlen
jules
ungarn
dynamiske
##spolitikken
funktionel
fortrinsvis
opsøge
reddet
brønshøj
220
wars
##videoer
åbningstid
tværfaglige
genert
fredags
oliemassage
regnskabsåret
stens
hakket
pølser
##karakter
##operation
opladning
rundvisning
arbejdstiden
##shæ
##ason
4,5
rende
håbede
østergaard
##oto
grib
hvir
haves
betænk
patrul
##spænding
kvalifikation
##kæde
##rammer
##resultat
installationen
##71
fjol
##mangel
dorte
fædre
spændte
beskidte
romerske
gennemgås
revisions
40,
slæb
2008.
##sherred
forøget
reparere
lm
##opol
krag
##morgen
tidende
gymnasie
##aka
##ical
amme
##tisere
persons
snedker
##øjt
##feld
cock
neds
##marken
##edraget
omgivende
klemme
udfolde
fornemmer
medregnes
prostitueret
##inn
##nisk
rygter
##behandlingen
transportere
##hyl
##atien
##endør
booket
lastbiler
indvandrer
##rolle
##senhed
##butikken
antenne
eksternt
fuldkorn
hemmeligt
dramatiske
overbevise
anmeldelsen
##11.
##hans
##skunst
freel
integrere
kendskabet
##bers
##fiber
##lyser
kaffeb
pumper
bankkont
forlange
indbyder
konsekvensen
ingredienserne
##aal
botan
fissen
hotels
revner
dyreste
indspil
øvelsen
bekymrede
konstaterer
mindfulness
##fir
##just
##sord
##afgang
placer
visual
ledsager
henvisninger
repræsentation
foref
ledte
rekvir
afviste
##arup
udpege
blanket
modtagere
organisere
sagsbehandler
##"?
##bade
enke
kolonne
vidende
pandekager
##opkald
lugte
mangle
konstateres
destinationer
##slu
##indede
søborg
stempel
organiske
medlemsstat
smy
wow
lånt
nost
rode
##eksemp
skibs
cannab
jakkes
varemærke
##agon
##bryn
glædeligt
vice
aroma
raste
personerne
##sne
stakkels
overnatte
94
##cket
knæk
stege
##safgift
valdem
##afgifter
gøremål
##holdelsen
partikler
hemmeligheder
(6
5-6
##ønnen
##special
sophie
ordninger
vedtægterne
##pude
stub
##gangne
bæres
sensor
målmand
inddrager
manchester
skt
##korte
marci
gaming
selvejende
midnat
stræber
sommerens
##forsikringen
##skru
##yret
linda
usand
##centrene
vanilje
bekymrer
2006,
anset
farum
mountainb
psykiatrisk
lønmodtagere
##rog
any
uud
##mængde
##ardiner
campus
skaldyr
lejemålet
##haus
karin
gaderne
rigelig
stikket
brunette
garderob
sektorer
bestyrelsesmøde
blåb
agter
##odeller
##vinduer
20.000
frygte
router
smitter
hjertest
##svurdering
nyg
##taske
wood
falck
##øe
##kro
rav
##ockey
##væggen
##fredshed
afgrænsning
udskrivning
##hz
##stigt
hardware
##77
##tp
heidi
morfar
##sygdomme
fraværende
aftensmaden
beskyttende
##rium
##ekont
##itære
maro
udtræ
##øjelser
voldgift
##strationer
døb
topp
chips
##teringer
dokumenterer
erfaringerne
troværdighed
##9%
##intet
tomt
##sfulde
hofte
kedel
##højt
##skrevne
paradoks
##auce
buk
##villa
dark
udse
##ikkens
forlænges
tværfagligt
##jul
søv
##hjelm
motel
kaniner
##behandlet
opholdsst
synlighed
##300
##non
bagfra
ambitiøse
solbriller
fotografering
laa
##korea
boost
##anismer
hyppige
##yndigheder
industrielle
låses
blomstrer
dysfunktion
##vem
lisa
volvo
insekt
krævet
pyntet
klister
konfron
password
##forvaltning
perfektion
uc
2.1
##arken
beau
##sbjerg
sexpartner
##læng
sandet
overraskelser
##lat
##cted
##grav
rejer
lykken
report
implementeret
##gb
##sur
næn
##hrine
rodet
casual
smooth
forkynd
funktionerne
##elej
##øjne
skyldt
folkene
kønsorg
forstærket
sundhedsfre
entreprenøren
##print
bosat
chrom
enlig
skærp
mareridt
sagsøger
kristendom
onlin
udlæg
advarer
iblandt
anklager
indtræder
katastrofe
chik
##bestil
johnny
robuste
likviditet
pun
bier
hist
##ordnet
##estation
##ømmelser
lejeren
omtales
##ssvarende
uu
afkøl
fibre
ulighed
##bevægelser
erindring
ingeniører
##værge
##forbed
##spærre
fondens
reading
skoleleder
##cke
sluk
tabet
episode
grundene
intelligente
1992
fanø
rune
ærmer
ballet
overskri
overskuddet
##næs
due
##ffekt
melodi
charles
paragra
efterforsk
indstillingen
##mont
202
230
##ægterne
##ønderne
glædelig
ale
jess
true
##møller
obama
sydpå
husstande
udstiller
##tima
##skind
akkum
visum
gustav
##slokaler
eriksen
folkepension
administrativ
##bys
##lampe
##gender
##istenti
bekvemm
lyserød
motivere
potentiel
dronningen
81
hack
klump
##moderne
bulgar
manual
##smulighed
afvigelser
diskuteres
konklusionen
leb
nob
uan
vod
##datab
duer
gråd
generations
forsigtighed
##cr
haw
##ommun
nyop
spsk
vang
bilka
kunders
igangsat
godkender
lokalitet
##bian
##kvarter
##egør
##korn
boot
geni
sæden
certifikat
børst
dream
ensbet
fastslå
sexhistorier
##fys
01.0
fost
lejren
indførelse
rigshospitalet
udfordringerne
##aire
##æmper
bluse
##kobling
birgit
butter
joseph
##relateret
meddeler
tyrkiske
amsterdam
elisabeth
hvidevarer
##reven
fundamentet
##ryn
##edin
genial
imperi
uenighed
inviterede
turneringer
offentliggøre
dyne
##effekt
jensens
fjernvar
pornografiske
hjel
##ssager
retor
folkes
vinger
##nementer
nærmede
##smaterialer
##beck
##isco
##kked
kub
møg
brag
krydse
##ningsvis
betjent
pasning
patenter
begyndere
skrivende
##obs
ust
##måler
##fransk
linde
johanne
ungdomm
veteran
køkkener
skyldtes
##igede
##melde
tørklæde
halvandet
overvejes
##blok
##havne
##hæves
##skilder
forund
afgrænset
ensbetydende
adsp
fejret
diamant
variabel
bebyggelsen
fornøjelsen
##zar
wer
henry
klogt
undsk
præstere
motiveret
telefonsex
fck
##andidat
dræber
ligestil
begyndende
grundforløb
cell
helligdage
videnskaben
##esign
udløse
##mennesker
partiets
udfylder
tilhængere
750
sno
visa
trådt
##skonsulent
onan
##etoder
hælder
regningen
3/4
diæt
blend
kokke
anfald
vulkan
fronten
udsender
håndklæde
opmun
##askinen
##sningen
fejres
malede
summen
brugernes
omlægning
##iater
##mmels
##otens
svæl
ånden
politim
væb
mike
##faktor
##sgebyr
liver
##atistik
##fiskeri
vidnes
beklageligvis
##aco
05
##agent
##serende
fugtighed
sværhedsg
##syssel
ocean
gjaldt
plastic
pålidelig
uforglemmelig
1-3
##ateau
dong
##opdater
##ordenen
bemyndig
landsret
søndagen
supplerer
fjernsynet
##01
##ancere
ordregiver
##balle
##sidste
vibeke
indviet
motions
##ebil
##oplevelsen
lillesøster
##egræn
endet
##sledere
kongres
lektion
læberne
##oti
##slog
neglel
takkede
##rundlaget
indikatorer
##cat
##wan
##wei
nv
##rekl
skøj
babyer
risikof
coll
##uering
semin
købers
mægler
##register
evaluere
stadighed
fremkommer
overraskede
fødte
##talerne
letter
dial
##igtigt
##tørrer
flirt
##panelet
holdene
nægtede
##sbilleder
rø
##element
cougar
health
energie
rasende
antioxid
##sil
##minde
ydet
inval
ekspor
##opgørelsen
##porte
##branch
snack
proven
stænger
vic
beklæ
nanna
shows
dernede
derigennem
##hoppen
##rækken
østre
##kanaler
##sbaseret
##æmi
cola
traum
jungle
frederiksborg
##rix
##ækkede
fratræ
styles
firkant
hydraul
pv
bero
##landing
tørrer
uddannelserne
##døre
trom
babes
stemmeb
birkerød
##ji
##hede
1200
flyde
strejf
rabatkode
understøttes
lejlighederne
transaktioner
##død
##ærsk
##galler
##runder
##orv
##gren
##otek
##indik
prix
arten
bremser
strengt
maritime
rejsemål
##sw
##edr
35,
(199
gavm
tern
##elsker
vogne
påtage
valgfag
ebeltoft
udskrive
værdifuld
formularen
klassikere
tilskuddet
betænd
##videnskabelige
##73
##had
træf
##ømmende
moralsk
ophæves
pinligt
forkælet
1,6
##estrup
aktør
##seksper
aftener
tilmeldte
tilsluttes
menneskeheden
søs
hjelm
facaden
##bekendtgørelsen
##die
brutt
facon
gaven
indian
##apparatet
afsættes
##beklædning
##oon
##........
ringere
distrikt
jakobsen
suppleres
rådgivnings
##samme
##shånd
novo
indtræ
##håndværk
engagere
husholdnings
##klo
dt
##ature
folde
jammer
alsidig
opererer
politikker
kompleksitet
##day
##kil
##flow
pud
##berry
##serfaring
kræftens
domstolene
gt
kah
krab
isted
nakskov
tilføre
sandelig
eksistenti
##cho
##dep
soves
akademi
##tidspunkt
bygherre
skuffede
tilladelsen
beck
##irkens
primo
lejere
living
templet
magasiner
tilladelser
aldersgrupper
serviceniveau
fyldestgørende
##400
##leri
idyll
##redskab
parkere
gentager
dek
stæv
##strende
mikael
##ærlighed
overraske
kraftigere
##ison
20-
hæle
klang
tortur
##indretning
udspringer
##iro
udgår
##stillæg
stukket
reservere
karakteristika
##åen
isol
pung
moses
sydfyn
alfabet
outlook
fungeret
demokratiet
maduniverset
dn
##hall
lip
size
sosu
##skærms
ordbl
helheds
##installation
##priv
##tiks
hylden
tvinge
smertes
gennemfør
finansiere
##hegn
##till
##agnet
tags
##trakter
sjette
soldat
##ssituation
forkælelse
overdækket
frustration
##scre
alg
urim
broer
##fødsels
højtid
##fællesskab
##smedlemmer
foged
stadf
vegas
##sproced
berører
svinekød
lymf
##stallet
suppen
feminin
hoppede
puslespil
##sfac
face
symfon
udlevering
1960'
charter
smittet
bevægede
allierede
barrierer
boligerne
##etra
##onomi
##skærme
teksti
uenige
realistiske
regelmæssige
##asis
##estre
kond
kryb
##maling
##espiller
indledt
nykredit
fremlægge
beskatning
prævention
##leverandører
retningslinier
##slad
##sløg
ufag
folie
defens
spiral
bangkok
bankens
foredraget
byudvikling
##ault
hæves
vital
nyheds
rygsæk
løbesko
thaipiger
campingvogn
lørdags
borgerkrig
foranstalt
alternativet
bevægelighed
legendariske
påsken
##samtaler
##dragelsen
stjernet
uheldige
udvalgets
##betingelser
##arten
featur
botilbud
interval
##89
##smuk
##week
flå
##sværd
dværg
etisk
velud
trivsels
erfarings
escortpige
##forandringer
ign
sys
tril
##sgruppe
##sgaranti
##ositionen
flyvende
lednings
ypperste
apparater
funktionelt
institutionens
bæk
sho
headset
jordskæl
syddansk
principperne
##paa
##ielt
iht
##mange
indd
megaf
bobler
koblet
mature
fingeren
søgefeltet
materialerne
sål
kurve
##atikker
mærkning
nedsættelse
##nævnet
philip
anfører
skattel
kondomer
mindsker
arbejdsgruppe
##eløse
serb
##bussen
skylden
bekostning
opgradering
##ska
levest
teltet
respekterer
ll
##neder
##kegaard
godbid
##edskaber
ballade
bilister
madvarer
parallel
##medarbejder
forudsættes
fortrydelsesret
adel
##proced
bænke
ordreb
spejle
tændes
##spartner
bestsel
distance
##overvågning
frag
rakte
marina
præger
salater
uendelig
parameter
evaluerings
forvaltnings
beskæftigelsen
##mot
##gear
stx
græd
overl
halver
afsætte
##aki
##altså
##pause
small
hundens
sporten
##sættelser
tørretumb
øvelserne
besættelse
##ektiv
##æssig
helse
gevald
læringsmål
udholdenhed
##fos
##vigt
muld
scoo
##køling
spill
whisky
desperat
gennemskue
ekstraordinært
dic
nex
##mager
hann
##praksis
inderste
undlader
bev
lejede
renæss
fortrin
uønsket
udelukke
markering
myn
dåse
breder
garnet
udskil
brugbare
##skrivninger
retvisende
##stod
50,
eud
2005,
klist
mappe
telen
protot
forsamling
psykologer
underretning
##urser
deri
##klædet
træng
uddelt
strålende
eftertragtede
sundhedsplejer
##ebyg
##guld
kio
velt
udvise
##lænderne
gourmet
forekomst
konkurrere
datingsider
fysioterapi
##)?
grind
orkester
fotografier
##pc
##1).
##uit
hue
idømt
##værkeri
fastslår
identisk
blomsterne
følelsesmæssigt
##bri
inge
vaku
æggene
oversætter
højdepunkter
uoverskueligt
##skyl
##lades
1700-
##enheden
uheldet
daginstitution
ff
##byde
##sang
##broen
okse
##geligt
safari
motorik
##ekontrakt
hændelse
investor
##amerikanske
forhindringer
##jur
##ardi
tuc
##ysten
deep
##rester
ihærd
##sstoffer
frygtede
##diagn
##kæder
##stræner
trendy
faggrupper
##isi
##agde
##ygiej
sædet
##endende
afløser
sensuel
cannabis
opfyldes
fle
lus
##onder
maren
databe
harmonisk
sygesikring
cos
##eknik
##udvig
lovende
svømmer
##strategier
australske
tai
##ønnet
sher
dyrkes
korrig
landes
tårnet
ligning
nybyggeri
oprettede
udlændingen
02
bide
foster
sorgen
løsnings
scenarie
skoledag
skinnende
arbejdsgange
kommunikerer
arbejdstilsynet
##mig
##edig
##elær
##ræne
cbd
##inale
5-10
svul
islamisk
lokalerne
fastholdes
##nt
gemte
baller
scorer
støtten
biografer
kritikken
##icil
sct
udlod
##bibliotek
##liggender
forfatterskab
##erier
##ærmet
##ulykke
great
stråle
autoris
##afgørende
affaldet
amerikanerne
##skreds
glædet
saftig
scoret
forplej
opstand
elskerinde
langsommere
transporten
ash
nås
buddh
retsp
skede
hitler
antager
##spolitiske
forsvarer
støvsuger
vanvittigt
dd
josef
cremen
oppust
begrænses
konkluderer
lokalsamfund
indkvartering
165
modet
kravle
usikre
jakkesæt
storslået
sikkerhedsfor
##edele
factor
seniorer
polyester
forhåbentligt
##600
høv
##yring
##bygges
trick
afløst
behold
##forpligt
udpeges
appeller
terapeut
cigaretter
energieffek
forfatterne
selvbetjening
##kabel
logik
##ception
skamløse
dannebrog
##onn
##fotos
benj
##priori
##estolen
rutiner
telefonisk
##lish
##sdata
gensyn
profit
##tillende
demonst
kronprins
##hub
2,0
##flugt
##sstyrelsen
stationer
opførelsen
opskrifterne
##sæl
(3)
15%
1980'
spræng
udnævn
forekomm
afslørede
skandinavisk
ald
hmm
##regionen
dækkede
allerførste
##husk
kevin
rotte
##ladning
førnævnte
##parlamentets
påvirkninger
lt
##asta
biod
kulturelt
2%
##ølge
ulve
nylon
fastlægger
sædvanligt
##forstyrrelser
overskrifter
4000
blues
##entning
tæppet
permanente
##nb
1,0
##raden
##works
##ægere
livsl
##idering
hindre
tykkere
højsædet
mobilepay
##acy
myg
##eklub
##rente
##sioner
subst
##atoriet
##ementet
bikini
##ektionen
dynamik
nostalg
scanning
fristende
rapportering
6)
##boller
march
skjorter
tilfører
##rah
##acker
##årnet
porten
festlig
grinede
israelske
instruktioner
partnerskaber
arbejdsgruppen
##verse
alfa
råde
##kastet
feminine
elektriker
tidsbegræn
varetægtsfæng
##oblig
costa
føder
vilhelm
##processer
hylderne
opdeling
105
##onyme
balanc
kanalen
indkomne
spisning
##ropol
cement
##sgrupper
philips
saltvand
bankkonto
psykiatriske
##edan
kulør
##idlerne
alment
opgaveløs
omf
our
styrken
synkron
ankomsten
standarden
##elov
hældes
majest
ophævet
##belægning
beskyttede
indvandring
##fy
##2).
dik
thr
##usias
hypn
##nation
bombe
vipper
bankerne
optimeret
boligområder
jep
ekspedi
kvantit
erklærer
nedsætter
beretninger
lokaliteter
mildt
skøre
apoteker
##registrering
hovedpersonen
##74
##tikk
##udgave
automat
skipper
extensions
##86
##-13
##!!!!
pit
##forsik
usund
håndkøb
prisbyg
traktor
afgrøder
bevirker
billigst
organisationens
##reglen
2007.
##mningen
vendsyssel
##rama
cash
sejt
##stimer
##lementet
##sborgere
lagring
tvinger
##indehaver
##samlingen
skimmels
akademisk
##indstilling
##via
##træer
##ventede
svinge
flybillet
begravelse
pensionist
##gær
##kas
##umentet
timerne
gallerier
besvarelse
fortrolighed
##sløst
anja
pund
##vandring
formelt
kalorie
rørende
ultralyd
forklares
opdragelse
formodentlig
name
##xelles
nationer
inspektion
modellerne
konstruktiv
konsultation
##såb
##esser
##aktorer
forandre
tiltalte
nuanceret
udtrykkeligt
fid
klyn
##beskat
##atorium
lofter
photos
skoles
forskud
forstør
kortene
udgøres
uforstå
elegance
##lt
##edann
vågen
##kyndige
holdbare
tidskrævende
##5-
##30,
##uts
pon
##orgas
##rejst
##svist
##aderne
##mmerne
bolle
##interview
dyrkning
linkedin
storebælt
fortjeneste
##vilje
##yggelige
tvivler
iværksætte
omhyggelig
opkrævning
swimmingpool
##yle
sle
##igner
sart
games
##betjent
##sekretær
anføres
kundskab
vuggestue
##alin
##ævre
##læder
axel
hein
indånd
portioner
##klipp
alger
guidet
sårbar
tungere
##kvaliteten
ventilations
31,
##portal
imorgen
pointen
støttede
vandfald
beregnede
mindretal
udvendigt
##inddragelse
placeringer
efterforskning
##gårde
flise
indgives
kameraer
styrkelse
fortrolige
##ningsmuligheder
##sere
##æppe
##ogram
##oplæg
maja
trium
##bestand
##stilskud
ventiler
vinterdæk
revisionen
##fortæl
begår
##overensk
oralsex
succesfuld
kvar
lingam
mindet
æstetik
##resultatet
fremhævet
milde
##tilbehør
ladyboy
##personale
efterlig
nedbringe
vejdirektoratet
1%
raket
stejle
præmien
##down
torsk
ludvig
baserer
evolution
##parlamentet
kvindernes
arbejdsmiljøet
fb
gor
##kunder
##beløbet
##fradrag
lysere
fugtige
muskels
huslejen
marathon
udstedes
udseendet
##jan
kask
terr
wolf
lounge
trænes
##ingeniør
køberen
provsti
skrifter
afdelings
tilbøjelige
knok
##forhøj
brasili
sælgere
##spændende
afholdte
visionen
indsendes
stofskifte
beplantning
integrations
##30.
##hud
##ree
18-
bib
##dages
##attest
kuver
opkrævet
tabeller
svigermor
##gru
##sbel
månen
sexshop
underlig
##bevidsthed
kierkegaard
virkemidler
konstaterede
intellektuelle
##uad
afhentes
indregnes
##ego
hensynet
klimaanlæg
now
"...
##indtag
serum
stemt
tempoet
deadline
anvisning
gudstjeneste
hovedsagelig
add
##opher
høret
kopper
varigt
lederskab
identificeret
##foranstaltninger
dras
##gødning
blodkar
ikoniske
skuffelse
##jere
000
hero
unorm
indsæt
jakken
acceler
##elly
##lært
ort
##nerup
meret
herlige
kobling
beregner
fænomener
lækkerier
##stang
iben
bader
vævet
liberale
rådhuset
bruxelles
##mine
##kjole
##behold
hedde
orker
santa
alfred
kilden
steffen
opsigelses
##ølv
##skor
##afler
kirop
tøser
censor
katteg
lillebælt
sovjetunionen
##snæs
##other
broc
lean
cheft
salon
vindere
udi
##børne
aars
##svinkel
skuldrene
##rt
fyl
##shuse
chip
fjende
omsætte
opsummer
tavshedspligt
##ibe
##skul
vat
putter
rynker
årstid
##udstyret
##mentering
adoption
præmisser
##konkurrence
pac
vre
surt
##propper
tændte
nyfødte
nøgleord
grønlands
installeres
##cts
##pop
##afgr
##fokus
##ammens
puber
##blikket
##smarked
beskrev
motorer
varmeste
##sejendomme
sexdating
opbygningen
##okt
oliv
habit
stifte
scenarier
livsg
defekt
vejrud
##cet
##jack
##prog
soul
banebr
company
skolegang
tiltrængt
##behandlinger
kirkegården
producerede
##splat
brok
##fisker
aksel
køler
kuffert
halvvejs
facebooks
opdaterer
arbejdsløse
##maj
##basen
bøje
ober
sild
##aktivt
marin
##ativet
musen
sluge
massør
##overførsel
manuskript
dobbeltseng
##roc
##iskab
arsen
##borgere
##jeneste
arrest
kostet
slukker
resulteret
indkaldelse
landsretten
kontrollerer
iss
skoen
trykte
veksel
ergoter
islands
orienterede
##xy
##hof
##sep
##snr
terra
dagslys
forveks
udgives
halskæde
øg
##shot
##svind
##ømmede
forar
##tigelse
kompagn
smelter
firmaets
fiskeriet
odsherred
##gie
ss
##tube
##spids
esper
karamel
mariager
finanskrisen
1989
1990'
bærbar
nordens
omtaler
muhammed
##98
##iki
koder
tråden
antaget
statsaut
barnevogn
istedgade
aktionærer
##lokaler
kloden
legede
horisont
returneres
thailandske
tiltrækning
##kog
##flot
color
##allergi
##reguler
barbar
hærværk
renseanlæg
potentialet
udvælgelsen
krydderurter
funktionsevne
kombinationer
smertestillende
udbyttet
udveksle
beskrevne
historierne
##stue
nie
##ørred
##æstede
køben
##enterne
vampyr
roulette
statistiske
konstruktionen
##-25
hub
##olley
levn
borte
bedømme
hævelse
troende
##modtagere
american
entusias
gennemgik
udelukket
varmepumper
3.000
magter
modulet
savnede
beboelse
børneværelset
arbejdsforhold
##ollen
holst
stefan
fortviv
udsving
sto
vuc
1900
sweet
kulden
afsendt
##kapacitet
energinet
sydjylland
dril
hits
##tement
børsen
chefen
fosfor
market
opkval
stjæle
##certifik
værdsætter
##rø
##lidt
32,
##andele
final
græsp
klint
sprøjt
studio
syne
moren
tjente
værdsat
##placering
indsatte
korrespon
videregive
vidnesbyrd
benny
share
forfal
hæklet
uovertru
##udgifterne
forresten
forsvarlig
illustrerer
##cider
##emark
##idræt
abra
##elivet
fiktion
##billetter
bygningsreg
omklædnings
##gav
nd
rab
sati
##porten
frelse
skålen
virket
hedensted
uendeligt
oluf
##bliver
invit
garden
##ficerede
nordfyn
##lyse
##sign
asb
rate
smæk
##lerose
druer
##bøgerne
sugard
##terrasse
knopper
forunder
facilitet
##trans
datam
angsten
proceduren
frue
fryd
pony
nedbør
sokker
bearbejd
fantasif
eksploder
##sats
##strid
elec
gert
##befolk
##gænger
fisser
overvåge
forankring
ventetiden
genanvendelse
1.2
bau
wat
veste
##nielsen
astrid
anonymt
bispebjerg
thailandsk
gennemsnits
##92
##yon
60%
abc
bmi
gls
palet
fangst
munchen
altafgørende
3-5
frar
længes
fotografere
publikation
##cell
36,
##væske
jordan
##essioner
##politisk
laursen
ankommet
dækkende
varierede
christoffer
tantramassage
spræn
diarre
##instinkt
hyldest
stearin
##anvisning
moralske
skikkelse
tilføjede
traf
smurt
støttes
continue
afvisning
hovedgade
persondatal
dokumenteres
nicht
toppe
kølige
hyggede
reprodu
##procenten
nødsaget
intentioner
##ussion
mille
##hjemmet
bekvemt
pålidelige
energimærke
effektivisering
(8
1/4
heat
lettet
lokker
styrte
fjerkræ
onanere
rettede
biomasse
skraldesp
energimærknings
##sådan
krus
røret
outlet
udelad
##sættende
påføres
##odtgørelse
udskrevet
##ee
jacks
pilgri
påvist
dyrlægen
##strategien
bedømmelsen
kontinuerligt
overs
south
##partier
dateret
dispens
tilført
browserver
kogte
##frugter
france
stevns
##hospital
kabinet
forløber
overdrev
ubeskriv
koordinere
strukturen
banebrydende
multifunktion
##aply
##sporet
##metoder
##ommeren
møllen
##building
standse
forgangne
##chf
##enda
##tedyr
aspar
karry
temad
citrons
implant
##venlighed
besvares
skuffende
supermarkeder
registreringen
##cil
##tæt
most
##online
luftfug
behøvede
fortsættelse
##ekræ
bestik
nederdel
##smyndighed
portefølje
efterfølger
forestillet
undtagelses
##sklin
##marker
##skursus
##bevidste
##befindende
##ssikkerhed
forankret
begejstrede
##spå
fogh
tove
##svarer
koner
diagra
vandaf
sletter
material
forvirring
opstillede
##rot
3.1
aage
##øgning
usandsyn
overtrædelser
bidt
torn
kæder
solar
##forbered
patrick
skitser
valdemar
transaktion
##-1,
ugentlig
christine
følsomhed
datingside
forhindret
##ueen
##værnet
golden
fremhæv
kirkelige
downloades
humoristisk
enkeltpersoner
##nep
##ienn
løve
konti
torden
##nemmelse
skriger
interessere
administrere
ansvarlighed
##run
##græs
##straf
##koncert
##skemaet
stoler
mørkere
brusebad
værdighed
forelægges
sundhedsperson
##ez
gult
zoner
stemmen
resterne
erindringer
borgerservice
##rele
##ikerne
præge
##finalen
konfigur
uventede
værdierne
chokoladen
løntilskud
##lø
##asi
##komb
only
rost
præste
brugbar
lyttede
smeltet
impotens
forgænger
fascineret
##imi
##øvn
##anfald
bands
cookie
kraftfuld
demonstrere
superligaen
beslutningst
øko
bore
opsl
tømt
stuer
##stikker
##væksten
legeme
massen
langtids
rumænien
arbejdets
diskrimin
socialpædagog
33,
buff
vera
iscen
munke
himmer
ligaen
delikat
escorts
ufrivil
entydigt
udvidelsen
##sekretariatet
aflyst
sluppet
gerninger
kølvandet
uforudsig
akademiske
underlivet
journalistik
sundhedsmæssige
vl
##feber
urte
banks
datas
##løsningen
##bedst
##hardt
##pille
ritz
carib
didak
mudder
calcium
overfald
indrettes
nybegynder
skulpturer
##arme
##hørt
tsk
skype
furesø
karant
##tyskland
fyldige
middagen
børnehaver
kendsgerning
projektering
##mmene
tæer
asian
ubesk
##handlen
dukket
##sbillede
stunder
mogensen
opfordrede
hotelværelse
,0
##rise
injek
polic
##farlige
kriser
radioen
opbevarer
modstandsdyg
enkeltstående
##given
##resser
gryder
affalds
espress
havregryn
##mægtig
guden
membr
friday
varmes
skyldige
afsætning
budgetter
arrangeres
forfatning
visitation
gf
disc
fyren
værge
yngle
sukkede
##erklæring
udkommet
vælgerne
autentiske
##ria
##anie
##pinde
amok
staf
##venser
andens
movies
småbørn
romantik
besætningen
15-
##sektor
banke
intro
leges
banner
slidte
fremgik
drivkraft
##sing
##kæden
##objek
##vænget
alice
tobias
##afstemning
beboelses
rettidigt
kriterierne
spørgeskemaet
verdensmester
##sbekendtgørelsen
##emon
gut
filt
next
syns
taks
uffe
##steori
armlæn
monitor
fænomenet
gyldighed
lejebolig
foa
##eskum
bagager
passage
prikker
bevarede
kroatien
udsigter
øjenbryn
fremhæves
oplysnings
sanktioner
##oy
(0
##ancy
reper
episoder
kommando
kognitive
behandlede
påklædning
gennemsigtighed
0,1
vad
liss
knust
##teminde
præstø
shoppen
uoverens
forekomsten
legepladsen
##eth
##byer
##smad
##eborg
niche
anonyme
fuldtids
helligånd
velegnede
sammenlagt
beretningen
integrerede
supervision
fastholdelse
bryn
expl
##ammeret
##koncent
bambus
sanseg
kurserne
skadedyr
##ønde
vas
behol
##mønster
##velfærd
udvist
årgange
barndommen
##cti
##anni
bys
hev
##inspir
woman
navnene
##sfunktion
##sprotokol
cylinder
sorteret
ægtefæller
##shand
smug
ballon
væltede
category
##serklæring
##røje
dump
smilte
velstand
essentielt
##hon
lii
##alter
rekt
lindre
sænker
##fattelse
##sprocent
indones
tørring
bolleven
overvejede
##doc
##iao
soj
##ainere
##journal
##iguration
fremvise
opfattet
pest
norddjurs
opstilles
verdensplan
##mæl
##weg
cc
siam
##dækket
##entusi
bench
varig
##.......
isabel
##adressen
bindings
justeringer
##ais
##ily
pm
2.0
50-
##grader
kommiss
spredes
ægtepar
##strømning
separate
kristeligt
midaldrende
hb
##site
agen
##gymnas
skyndte
##vard
40-
tja
##rskov
bosch
føtex
twist
balsam
jøderne
lektier
udpræget
tilberede
nedbrydning
##3).
opløst
væsker
##sforløbet
retsplej
38,
anse
ægyp
##tegnet
##øsning
facili
magnes
tao
##lyste
##tedes
##vansk
nuru
##okalet
vælte
skitse
stenen
teksterne
##infl
##unes
##breve
##super
koges
lunde
rundet
efterlod
karrieren
kulturarv
##fig
##ence
matt
##magten
pokal
##ingsanlæg
lærernes
grupperne
reklamations
vri
##denne
##komite
afrod
krudt
humanis
partners
fjernbetjening
##kurs
##tile
##idsen
##børste
årtus
censur
adgangs
##iseringer
pubertet
##personalet
konstante
tegnefilm
tekstiler
forbedrede
kvalificere
aus
tabu
østr
##arning
klages
##blomster
##ransport
frodige
undertr
##forstået
beskyld
længsel
gentages
besværlig
fastlægge
indberette
fremlæggelse
##kart
sci
zen
them
æblet
akkomp
beklæd
erkend
##niveauer
##skabelse
christopher
##ism
##lie
##akon
gråt
skræk
udskudt
benjamin
indledes
oversætte
##okl
##ansat
##bruge
tapas
æggest
##sprincippet
##62
(10
##mødre
##ydninger
sindssygt
programmering
##gig
##ekst
##især
kel
dæks
rare
ordfor
people
##hængende
##ytningen
elastik
giftige
tilladte
innovativ
uskyldige
konkludere
medlemmernes
effektiviteten
##aber
kgl
##sting
øvede
##elinjen
eksplic
##sniveauet
postkort
glidecreme
ankestyrelsen
koncentrationen
##50,
##mix
enge
kess
grenaa
søstre
##pus
emh
##ommens
indbo
##beredskab
fremdrift
gentlemen
observeret
##drager
##ladser
rally
vinyl
##estemte
##kkelser
sokkel
kærlige
vw
cho
##næsten
rider
##retlige
udkanten
korrektion
1/
##ægge
bue
##kaffe
aber
analog
formind
forbindes
forplejning
##tri
emb
##estad
rans
smede
pulsen
##følsomme
umulige
vegetar
ledelsens
##hø
##ged
##pit
115
##offent
motivet
centeret
styringen
##sug
##skrig
##tasker
hælde
drøftes
skatten
skattes
marcipan
utilfredse
##conom
1945
##ranter
råstof
smidig
tilsid
##dumfrygt
museums
klubberne
publiceret
accessories
natte
state
holdte
##økonomisk
rekreative
pyt
usd
mars
koffe
snork
indledte
introducere
##nære
##ædet
12-
pisse
skyer
udluft
beklædt
dyreliv
svækket
features
hjernesk
månedligt
regulerer
edb
jfr
##field
##iceret
fagene
længder
genskabe
konjunkt
konserver
parlament
forefindes
prioriteres
autoriserede
frustrerende
##åle
##sons
rejseg
gebyret
##ventioner
##værelserne
ejakulation
##æres
##helst
ghet
byrum
##klaring
##kræfter
robotter
returnering
nåle
##kopper
hudens
##danmarks
håndbog
liverpool
finansieres
overdragelse
skik
##fattet
mekaniske
formandens
essentielle
##otin
##ilbud
##strøg
majs
view
##enmand
fælde
servi
playst
##levering
##arealerne
portugis
ubevidst
##eselskaber
arbejdende
ejerskifte
målsætningen
skyt
ther
##kyndig
##slerne
umage
##ansøgere
gulerod
kontaktannoncer
##nic
1,4
koh
##masse
pure
sejlet
##hotellet
dæknings
påstande
fastholdt
kommerciel
##lah
10:
glam
kvote
solcreme
udklædning
mam
##sfisk
##brevet
##båndet
tving
gavner
huawei
snegle
tobaks
##inationen
##berettiget
funktionsned
kønssygdomme
##pæl
60'
nan
##herre
1991
##datoen
##hedens
bendt
##aftener
havnet
frugten
spærret
tandlægen
relationen
##800
##irs
03
##fans
##hest
##læne
fedme
suite
##esserne
##ssteder
chatte
fiskene
plantes
højdepunkt
målrettede
##pg
##10,
##odor
##read
æren
##accept
##sommer
hoste
##ovation
blåbær
absorber
jordbrug
forhandles
##atic
sou
##nøgle
chan
##ederen
##ssiden
esben
antrop
anmoder
østersøen
gon
tut
##malet
nyre
æske
driller
modetøj
upåklag
##fortælling
bogføring
krige
##forskel
##grænser
##udviklet
gummist
fartpilot
overfaldet
oversættelser
værelsespriser
##door
eux
##metode
tolke
trøjer
##neringen
omtanke
opsætte
rygestop
tilhænger
##ødere
##sbanen
afmon
vokal
værst
bunker
##dokument
afspejle
ejendele
rådgivende
personligheder
##hos
udd
1800
very
moske
lethed
render
landene
##irksomhed
trofaste
##specifikke
lykkeligt
storslåede
##omon
1,3
##kryds
lime
pizz
##jensen
ending
heldigt
afstande
emission
rummeligt
discipliner
blærebetændelse
##))
##itivt
nægte
##flasker
ildsjæle
placerede
##rettigheder
blomstrende
##vey
##rogen
skan
skys
##meldte
ydelses
##bevilling
modernis
##bestemmelser
##syre
##æser
pics
##dygtig
clean
haand
##skravet
køretur
##shandling
menigheden
optagelses
refunderet
hovedstadens
##urud
mug
##dance
mejer
##profiler
smørret
madspild
simonsen
medbragte
specialer
stemmerne
forekommende
##ølle
atp
nev
##sfrit
tunn
fjerd
tante
anpart
utvivl
fredede
skræmme
fremsendt
udsmykning
sis
##ordre
##skurs
hook
telte
nattes
udflåd
##ydningen
tandlæger
besvarelser
sap
##demål
##ævnes
polst
##istiker
blogge
postkasse
1,8
snow
bokse
barske
propag
##sgruppen
ceremon
standby
aggressiv
hyppigste
universal
litteraturen
erhvervsmæssig
##erfar
##rulle
##gratis
after
bitte
plæne
##misbrug
##usserne
genren
##ssamfund
korriger
mikrofon
returnerer
##melade
pinde
steril
##rrrrrrrr
##fabrikken
##spilleren
stemmeberet
##mil
deal
fæld
bukke
gutter
metall
blender
indstil
regneark
venteliste
##.>>
##vag
kry
nin
deut
##atøren
##seffek
sinds
##metoden
##ansøgning
champions
softwaren
progression
rio
volt
dalen
græder
integr
anlægge
jammerb
stemmes
fortrolig
inkludere
markerede
efterladte
kerteminde
korruption
plejebolig
##gent
råt
##uheld
##fantas
ryste
amatører
cirkulære
reviderede
kartoflerne
konstruktivt
minib
skaft
ferieg
hierark
##ansættelse
indrettede
##jes
##pin
##fare
##ores
utæt
##havner
roden
susan
søerne
udslag
##fotograf
optrådte
beboernes
fotograferet
##chi
##etage
##track
##ordene
##sevnen
mærsk
little
tosset
vandretur
verdensklasse
##king
##pisk
90%
oil
##donald
##gribende
##stederne
abraham
comments
omdannet
suppleanter
informationen
##onto
edition
indgivet
indlæring
klasserne
ambassadør
##fn
##rete
mure
blænd
angeles
angribe
regionalt
argumentere
restauration
##63
##eske
##wald
wiki
2004,
pastor
ubetyd
afgives
kommentarerne
##måde
34,
lee
sarte
dyrkede
kogende
samment
parallelt
afdelingerne
flyselskaber
statsborgerskab
trek
basil
texas
aftager
velsign
##overfladen
islandske
klubhuset
betragtede
arbejdsglæde
##bach
##bour
##spændt
##emærket
vakuum
adwords
boldklub
ignorere
sidestil
indrømmer
livmoderhal
matematiske
understreges
##uma
##skens
moskva
udtrykte
galleriet
accepteres
hukommelses
kunstværker
##apr
04
0,2
##læses
forsæt
nissen
konsoli
vallens
krydstogt
mundtligt
##oma
##trup
##initi
nuet
##graden
##ratorer
musikk
ansøgte
geografi
rabarber
skiftevis
godkendelses
kå
##dels
##ibel
##klap
suk
glød
slam
##aftryk
##sdatab
adult
tucan
vitter
overdåd
paraply
diagnoser
intervention
ualmindeligt
sundhedsfaglige
##beton
##email
##løber
##ladsen
##sminde
folker
underliv
opposition
indeværende
hc
##vine
klor
lchf
dagpleje
cocktails
fortsættes
playstation
##dets
ædel
secur
fredet
hatten
skærpet
##akademiet
færdighed
##betjeningen
sandsynlig
##sbeskrivelse
køen
blanke
pegede
pumpen
fejrede
kirurgi
##rengøring
beretter
støjende
betagende
parlamentet
forebyggelses
##peter
##vægten
ditte
ivrig
trofast
villaen
syddjurs
vikinget
middelhavet
pornostjerner
##06.
##vat
buch
##gaards
eksem
optog
skill
##anstalt
##skørsel
tårnby
##halvåret
landing
plantage
forstyrre
##arth
ara
##bryll
fjel
##kamera
nytter
tavlen
strøget
aktierne
domineret
underlige
indbringes
skabeloner
investeringen
overnatninger
##alia
##finger
skreg
ånder
merete
brætspil
allergisk
intensivt
tåge
lamin
tibet
##færdige
algorit
lysende
tyrkisk
away
tømme
##sdatter
naboens
##estilling
bonusser
kendelse
opfordret
analyseret
##semin
##iverne
gmail
korset
tendensen
indikation
nytænkning
sammenholdt
bevidstheden
##åå
moz
sovs
skænd
afhænge
overvåg
øreringe
folkelige
græsplæne
troværdig
tilfældigvis
vak
bitco
fatter
forkant
opførte
##betalingen
storebror
inspirerer
straffelovens
##fc
##kne
6:
##ssyn
##orvet
brat
##faglig
##ianske
kategor
slapper
skattefri
charlotten
julemanden
færdiggjort
tilgå
spontan
tilgange
tilskuer
generende
udsendelsen
koordination
##wi
##lor
egn
##stone
##assens
kølig
belyst
overlade
langvarige
mw
##asso
##atus
##ints
hess
skip
##lejren
afløn
gaard
finske
##formular
##mulighed
googles
nedgang
tilbragt
medborger
værdiskab
energistyrelsen
##lus
##nærm
##ords
##oten
bour
turk
##færden
opsyn
##samtale
humøret
selvfor
skubbet
skotland
terrænet
vedtægts
politikens
indførelsen
turistattra
ng
dyk
##sæson
forudsige
stiftstid
vedligeholdes
muff
##ammede
##sigter
bages
knytte
ignorer
storhed
klienten
chaufføren
eksplosion
foreløbigt
##hil
cuba
fabel
logger
indkøbt
##atisering
##spligtige
forældet
##standarder
interaktive
##stk
##fire
##sfasen
ensomme
læringsmiljø
istandsættelse
##face
cad
##lamper
bevilget
udsteder
afrikansk
baggrunds
lægemidlet
nude
imper
lejes
##virkende
overladt
konventionelle
mcc
##pærer
vande
ritzau
naboerne
søgninger
fraflytning
arkæologiske
vedligeholdt
##øber
##øjtn
mtb
indbe
##lederen
branding
magnesium
opgradere
sofistiker
tilstødende
almindeligvis
##head
føn
##edren
akryl
dæmon
essay
afklare
lauritz
mindede
ansattes
beføjelser
##ejet
tåb
##illes
##nogle
rude
##runden
behår
værts
forsat
nørres
alarmer
udbygge
asparges
brabrand
skadeligt
planlægnings
spektakulære
##liget
mikr
pick
bagte
##perioder
stalden
foundation
historiens
undersøgelsens
##bh
##aro
##oed
##oldt
##ugen
##stine
peders
##direktivet
forandret
sædafgang
efterspurgt
statistikken
##bech
bevæget
project
##beregning
##bun
gaz
##watch
dies
fern
påkl
##felter
##foræld
selen
titan
tobak
vandværket
##peci
gabri
mallor
please
charlie
##kompetencer
##5,-
hay
##ugaard
frygtelig
gyldendal
originalt
biseksuelle
##!),
##sbane
alen
bræd
kæft
dates
væsener
bogholder
funktionær
improv
parlam
håndvask
kunstværk
regninger
##87
##streret
spinat
sangene
fortrudt
suppleant
svagheder
##cig
town
xbox
##skortet
##sordning
##eskyttelse
##semb
pip
##sident
boulev
friskt
hegnet
knogle
##sbygning
afbryde
bagagen
##optagelse
anmeldte
gennemse
sanktion
indsamlede
instruktøren
##sli
asp
pay
##bilen
babe
##edragt
psykop
tilsætte
langsomme
indkøbskur
bearbejdning
ejerlejligheder
##duft
2.2
##typen
##følgen
##vejene
hjørn
malmø
sluger
ældrer
##højskolen
betegnet
brødrene
tilbygning
##61
diæ
##aktor
genud
skelet
tilegne
##materialet
##tilpasning
##forordningen
##fid
##ærte
alb
gid
kag
reol
yoni
##hullet
hjælpende
tidsrummet
innovations
siddepladser
servicelovens
##kæmp
##uldt
gnid
zoom
##ensburg
deklar
tilvalg
lungerne
optagelsen
##pdf
heb
odd
pcb
summ
bagsværd
limfjorden
sexannoncer
tilstedeværende
##øk
##care
##bølle
grot
venus
fortryl
##iversitet
helikopter
##igan
##ågen
ctr
brom
væsken
uddeles
bearbejde
tiltrækkende
organisatorisk
##gom
##ovo
##igne
dynen
semif
slæbe
##stænger
boende
fælled
kundet
frafald
afventer
anhænger
opsættes
skridtet
skolernes
realiteten
##84
##cin
##psi
##sno
##anka
##olerne
vagter
##sarbejde
kampens
ytringsfrihed
##base
##krog
##tten
anede
derom
hængek
bryggers
henføres
vallensbæk
(1.
fcm
ugyld
##agelsen
publis
indtages
evangeliet
portrætter
(7
##brik
och
##leret
##mobil
##bakter
nomin
ombud
skæld
telia
filtre
##tilsynets
fia
stan
taxi
skåle
farfar
gælden
pistol
dilemma
bønderne
skeptisk
medvirket
overtagelse
præsidenten
70%
##alarm
jones
trumps
koffein
svindel
forøgelse
utvivlsomt
ansættelsen
fic
##årigt
olde
blinker
retssag
dagbladet
intention
medicinal
værdifuldt
taletidskort
transmission
csr
ilde
##bemærk
modig
##tidende
vestre
##kaldende
vibration
overdraget
ekstraudstyr
##fet
##aise
ifm
pom
pian
##stream
intra
micro
savne
##eterapi
##renover
##sejlads
koranen
hårdeste
##usk
tool
indførte
prøverne
##eper
læne
##identi
bider
forbav
rustet
anslået
passiver
tilliden
anbringes
influenza
debuterede
underrette
certificering
betydningsfulde
##ela
##sub
uri
##canner
sugar
##udgaven
hæftet
optjen
toyota
##skaberne
holdets
rustfri
##perspektiv
instrueret
rengøringen
bortskaffelse
##oh
-,
vene
##etiden
comfort
gerning
hjulene
opdeles
alsidige
frigivet
nomineret
strækninger
afskrivninger
præsentationen
##seg
ish
##hulen
eyel
kand
##ologen
##teamet
2000-
koret
satan
skræn
frodig
ophids
palæstinensiske
##avi
##ræde
##øjes
græspl
mandat
pommes
##visnings
bedring
medtages
##trækningen
havudsigt
bestillingen
##gigt
fox
sie
fibr
##finder
##ofælles
helene
indtjen
startes
uddyber
foregået
lancerede
udstedelse
##køn
##foss
osse
saks
læreb
##cerende
##entrepren
prognose
utryghed
kontaktede
serviceydelser
##)-
##iteter
##farligt
fritiden
nielsens
tysklands
afprøvning
nytårsaften
bibliotekerne
##orlov
##scene
unes
hverv
30.000
forvandlet
instituttet
##informationer
##nak
##ties
##atten
cass
hald
hing
hugo
spyd
bosæt
##partiet
klares
stimul
kogebog
naturskønne
##tron
##ekast
gåde
styk
##reform
##telige
faneb
##sbestyr
##sforsøg
stores
hjerner
strikker
folkeskolens
palæ
##slende
maxim
rusti
##ateriel
trykkes
datidens
hjemland
indleder
psykiater
##sdyr
sri
##overs
betro
litau
piskes
tilløb
indtaster
fotografen
sammensætningen
rd
æk
##sjob
cod
##achim
##bolde
tæve
bebrej
booker
værnem
fysioterapeuter
internetbrowser
##93
##sle
slib
##parter
##skibet
##dragter
hakkede
saftige
##opskrifter
kvalitative
##vindue
hansens
honorar
kunstigt
havemøbler
proportion
byggepladsen
forventnings
niv
pave
subl
adobe
##hjælpen
tiltænkt
kirurgisk
anliggender
anerkendende
##ørt
,5
##sven
##slande
helår
##dateret
##stykket
blokke
genvalg
graders
vedtagne
bekræftede
frustreret
bygningsdele
##lot
aw
##kout
##timers
##ønsker
##kanalen
lokomo
konsist
mellemm
websitet
menighedsrådet
##oz
8-
##ffel
17-
##tyske
shar
brows
##skattel
lyttet
filmene
dommerne
protected
procentpoint
læsø
sæby
baade
flader
##belysning
##ificerede
mathilde
ændringsforslag
##vr
##pøl
mj
##undby
##plante
domme
lygte
rulleg
emotion
udendør
##forordning
##vanskeligheder
##syd
uar
##orges
##srige
##floden
##rammen
sultne
medhold
sødeste
##ikkerheden
afleverer
beholdere
manuskrip
leveringstiden
mut
four
lemp
neon
råds
wint
spand
tryks
vakte
##skasser
frikad
graven
plaget
villet
sluttet
champion
inviteres
kraftvarme
udsendelser
underskrive
##ches
##sejr
kin
epile
##redning
emilie
saadan
overenskomster
##los
ryk
space
##redegør
tarmen
##ringerne
afgivne
folkets
hestene
network
cellerne
flygtede
forskels
##estok
##ility
semi
##kompon
herman
##spraktik
balancer
cykeltur
hjælpsom
vandreture
##slede
feder
printe
rystet
lettelse
netdating
##sbyg
##konfl
hirt
##agning
15.000
graden
plukke
stammen
forløbne
multimed
##samarbejde
##hvi
##mik
##ekte
##ubli
##ostat
1950'
##hjemmes
latina
justeret
cheftræner
førstegang
journalisten
##fæn
-.
##æner
##ødes
37,
##illen
hade
##teksten
borgen
michel
bureaukra
dedikerede
intervaller
principielt
guddommelige
##83
##2018
##acht
løns
##servic
varige
skubber
anklagem
hotteste
udvælger
sortering
pludselige
tilstræber
##bebyg
##marie
stegte
##rængning
opfatte
bølgerne
markerne
omverden
verdener
##udveksling
dejligste
opretholdes
forbrydelser
menstruations
",
##tilb
anc
foc
##egnen
##strøms
##føreren
havner
vejrudsigt
forestående
forvirrende
##licht
##shals
bevæb
knive
setup
sunget
univer
folkesund
vedlægges
landevejen
##ministeriets
fokusområder
motivationen
42,
fuge
slør
wird
turne
absurd
grænsel
truppen
udpeger
indebære
koncernens
definitionen
##96
##ea
##soft
##srum
oec
##front
##oland
##aktier
donor
dubai
munter
fugtigt
skuespilleren
vandforsyning
forudsætningen
##noget
##ovide
##buffet
##hygiej
svæve
##beviser
boligens
belønning
vanvittig
drøftelser
##bæl
24-
pel
##ckers
##målet
trio
##rustet
##ændene
fodre
bidrog
myrdet
pænere
skylle
nyheden
slikket
afspille
nedlægge
kvarteret
brandvæsen
afstå
boble
pesti
##ificere
##specifik
udadtil
argentina
kropssprog
leverancer
sommerfugle
ødelæggelse
hjemmeholdet
##hvem
##ruter
gill
##tierne
##prægede
brutal
##analysen
lovlige
rengøres
komponent
kærligheds
overblikket
solcelleanlæg
jyd
nag
##fanget
spind
spæde
story
synke
gætter
indskol
tolkning
gevaldigt
sektioner
##grå
##rave
##unger
anth
##olitik
singap
##hjælpere
fischer
leveringen
ejerlejlighed
##saa
lb
##landskab
##partnere
presses
bekræftes
flyrejser
grundvandet
loppemarked
bestræbelser
telefonnumre
gog
kay
bøder
birthe
grøntsag
etablerer
provinsen
skolebørn
erfaringen
regeringer
##regi
jim
##integ
##saftale
realdan
##pladserne
beskedne
massevis
##optagelser
kortlægge
fremtræder
kortvarigt
redigering
##bir
##uash
ral
kids
##studie
salling
studien
motoriske
respondenter
socialistiske
diy
##isters
huser
notes
nutid
rullet
fristet
brystvorter
motorcykler
##rice
lif
medit
brygget
dyrenes
klippes
##tegnelser
pensionister
##væn
##roll
pvc
##ovede
rast
##arrang
adren
knæet
ophob
varmek
givende
migræne
truende
##skæringer
berørings
##oplysningerne
misligholdelse
##råb
jog
klu
##filmen
aktiek
##sstilling
reformen
gigantisk
pensioner
selvfølge
fyrværkeri
standpunkt
tatovering
entreprenører
finansierings
3%
##hjør
frat
##vensen
tavle
ømhed
dametøj
krigens
##regningen
samlever
##tighederne
bebyggelses
stiftstidende
##cos
##liner
index
##espring
##irkning
bridge
værdik
##modtager
badetøj
kompost
fremlagde
efterårets
udsættelse
sponsoreret
isbn
##imeter
høste
riget
webside
baggrunde
domstolen
solnedgang
cut
ifald
##artikel
ophæve
pollen
##siddende
autocamper
hensigtsmæssige
##ræs
tits
koger
##elmasse
##issioner
månedlig
desserter
igangsætte
##ssæt
bbc
elek
hipp
polsk
##behovet
hæmmer
##giftning
barriere
hvalpene
metropol
medvirken
rekrutter
platformen
sydamerika
##unn
##knap
dyrk
antag
bamse
bingo
hiver
##lingens
carbon
havets
##adresser
##spisning
entreen
evighed
aftalens
højtaler
neglelak
strømmer
dg
##fedt
iris
##social
finur
glædede
småting
##færdigheder
efterlyser
overarbejde
kai
##bakke
tulip
fuglen
løslad
margar
tanden
joachim
omkreds
tættest
redigeret
følelserne
definitioner
supermarkedet
##røg
##aper
##ildt
##unds
staa
##agaard
##onerer
##timent
##regaard
kattegat
terminal
superliga
betragtninger
arkitektoniske
zu
##vands
erek
tosc
##hinden
beski
disci
still
kognitiv
observere
forstander
4%
##seud
bej
##angiv
##ribut
kent
##eskind
##skampe
ansku
##tigning
fjendt
højlyd
tjekkiet
indsamles
betjenings
offentliggør
frederiksværk
##puder
bull
uved
##yndere
gyser
##ytterne
silver
telenor
##sordningen
foreligge
intimitet
skrivning
terrasser
uforudset
arbejdsfor
brylluppet
##befolkningen
##sfra
1.0
25-
nim
##bjærg
##tennis
devel
movie
bevoks
##telefoner
konvertere
##æks
##html
grati
kredsen
åndelig
diskrete
##kyl
##etur
##besti
arth
phen
sagn
aktien
gulvtæ
linier
##nementet
gradvis
lancerer
neutrale
specific
svendsen
garantien
islamiske
svimmelhed
kollektionen
##omkostningerne
utilstrækkelig
##dest
##alismens
afviger
kvitter
##værdierne
modtagne
##sfaciliteter
universiteterne
hpv
sdr
##glæde
ivan
ritu
belej
gavne
offsh
##førslen
##tiklerne
glimmer
klassens
anbefalingerne
christianshavn
lokalsamfundet
understøttelse
##pir
##live
##æske
##ismens
##onerede
empati
nutiden
##ulationen
bordplade
ernærings
forbundne
eftertanke
stearinlys
sok
##ræder
foot
føje
kiel
rung
##chauff
emmer
autost
anstænd
ligetil
##anmeldelse
tilbuddene
samfundsfag
(4)
135
##odens
2003,
annul
elbiler
indmeld
sympati
virtual
holdbart
hirtshals
magtfulde
nørresundby
restriktioner
##kd
##cor
oz
##bryg
##antet
##styre
1987
1988
æter
fløjet
hygget
healing
databasen
uddateret
storkøbenhavn
tilskadekomne
cn
øvet
##besvær
hæren
anlægges
brugbart
friskole
##konsulenter
mikrobølge
##lay
##come
##ofon
agurk
bloom
heart
rating
spares
støvet
fedtsyrer
nærområde
benyttelse
hastigheder
##jens
##fanger
freja
lærke
disken
livlig
napole
##orkester
##tekniske
##kommission
middelhav
superhost
veroffent
##safdelingen
beholderen
workshoppen
nm
##yren
fora
grimt
udtør
##skuddet
tiende
##platform
anmeldes
##godtgørelse
gymnasiale
energimærkning
institutionerne
##wear
240
autov
binding
piercing
vedlagte
overvejelse
vem
fædr
målte
pirat
udnyt
byttet
udleve
sværeste
ambulance
indånding
påbegynde
afspilning
informerer
øjenkontakt
statsborgere
mud
basic
brusen
lavest
##blanding
udlægges
indarbejdet
prale
random
salmer
kessler
overflod
suverænt
indhentes
jernbanen
lufthavne
udviklere
udformningen
veroffentlicht
hæm
males
bænken
øjenlå
friheds
valutak
arrangør
lodrette
aktiverer
sommerdag
sygemeldt
udskrives
->
0,3
åby
lurer
price
intakt
jødisk
trøjen
##barberet
beboeren
relaterer
studerede
mangelfuld
##instrumenter
husholdning
inspirationen
campingpladser
##dyb
gd
##gode
##tone
ali
sic
##absor
##sukker
tonen
candid
handles
##ådgivning
bedrager
benchmark
henriette
objektive
hjælpemiddel
tidssvarende
premierminister
##ders
##kanal
depar
jokes
disses
usynlige
blodprøver
asylansøgere
misforståelser
vp
gip
fade
bagen
##sparing
kundes
ultima
##netværket
forbløff
værkerne
stigninger
udarbejdede
gruppearbejde
##wall
bush
doven
flyvet
gåture
trille
officer
fjernede
uhyggeligt
misforstået
statistikker
overenskomsten
7,5
place
delene
fagets
kompli
volden
behåret
udlejes
krydderi
##arie
##iana
##lære
##plet
sea
##udvid
##bredde
flager
frister
blomstre
##indsamling
tolerance
virknings
pesticider
##cky
##uppe
##selvom
##vagten
holte
nordpå
strapon
venedig
ansættes
forfølge
swingers
grundlægger
arbejdsgiverne
spilleautomater
##82
##ssik
leo
00:0
sper
verb
##erejse
##linjer
tysker
anatomi
tilbered
pornovide
begrundelsen
indstillingerne
duo
ernst
##øvelsen
afspær
mascara
skrider
bloggere
kompress
animation
involvere
københavner
##4).
kjøb
##ekstra
guldk
jonat
hytten
reperto
##smaskiner
stråling
##forhandler
indkomstår
forsikringst
##insk
##eback
##sfælles
aftryk
aminos
pointer
vinderne
selvsamme
udelukker
belastende
dekorative
stjernerne
igangsættes
laboratorie
ligesindede
laboratorium
ay
##ætten
kaja
##terapi
##levelse
corpor
pioner
##givelsen
blokere
udbygget
krænkelse
forfærdelige
##skom
dyd
##rafik
lunt
##flaske
depri
somme
##ænkende
implic
pensel
nystart
spækket
begæring
drastisk
afslappede
søndergaard
forsinkelser
##ils
##ello
##mente
task
##forfat
##sfirma
##titude
##ørsler
short
bilder
chelse
mailen
tiders
udtræk
bagerst
kendeteg
persille
udpegede
hårtørrer
##assistenter
kommunistiske
publikationer
transporteres
##zh
1900-
pante
fremsk
moster
upload
##læggelser
magic
røres
snaps
margin
##ostyring
uniform
eksotisk
vasketøj
ydersiden
##mailadresse
bekymrende
selskaberne
udviklingshæ
##hp
##upp
##iate
##mart
##ieret
jimm
toks
2006.
illeg
talen
førend
klokke
pengep
lystbåde
hjemmesko
##,00
##rep
##toft
225
4.1
ted
##stuen
feks
moon
##espark
##gæster
2005.
disco
helge
##steknik
multik
tillagt
bureauer
flyvning
##sforskning
kontinent
##siger
##øjede
##skonstru
##smedicin
omdømme
kronborg
markedsf
styrings
tilsides
##bliveenmand
folkeskoler
landsholdet
tegneserier
autorisation
spi
ups
##lokale
altaner
radiator
evalueres
forebygger
##prak
3.2
1985
lake
kusser
emnerne
velplej
##sgrundlag
latinske
forespørgsler
ai
arc
wen
##ekamp
##union
noti
fortræ
præmis
tæerne
ambitiøs
nordsøen
opkræver
efternavn
menupunkt
horisonten
indflytning
nationalitet
##vu
##garn
bym
voj
joan
##hormon
2000,
sporty
##sejendom
kørslen
venstrefløjen
##;.
##itis
183
365
##itage
##inkler
##ebukser
gulvaf
roklub
hastigt
mallorca
ordentlige
tiltagende
regionsrådet
##mpr
##sbl
dmi
siv
svane
##ratoren
miljør
puster
vertik
utålmod
forneden
grammatik
stikprøve
svømmehal
fejlagtigt
vestergaard
repræsenterede
##gaar
##oleum
liban
##aktører
adress
marcus
omgiver
straffet
##berettigede
##obligationer
solidaritet
jævnaldrende
realkreditlån
##char
ulæ
kvær
vulk
##statning
bagside
metabol
##skontoret
oplæring
overgået
ergonomisk
skifteretten
##-1.
##ikum
auf
hir
dani
kard
rend
alban
flink
kvist
##undskab
rollem
tackle
anmodet
stedfor
kejsersnit
maskinerne
##åse
##ktiv
##lavede
##slinje
##atiseret
skalaen
spontant
enkeltvis
overfladisk
vibrationer
energiforbruget
##ero
##basis
##bonus
##brune
alph
myte
doktor
kysser
imødegå
kontinu
skilles
standar
hviskede
lørdagen
panorama
fredeligt
indbetalt
mesterskaber
##02
##fad
turb
radius
selvop
outdoor
begrunde
jeanette
medaljer
skyscanner
()
##ando
##arab
0,4
##craft
##edelt
##fader
##skala
elit
hehe
##præmie
##bærende
gynger
vækket
##interval
betænkning
sportslige
deltagernes
uundgåeligt
##97
##kin
##okem
##tomer
##praktik
academ
bemand
eddike
gengivet
monument
jordskælv
stressede
##retur
##fester
indså
##splanlæg
maleriet
studerer
synliggøre
menneskeligt
112
ice
udpl
sofab
vægte
mediet
valley
behøves
uaccept
forstopp
regelsæt
##regnskabet
fremlægges
behjælpelig
##utt
##ytme
ræv
lassen
##isternes
hårfjer
regntøj
afgiften
kærestes
##strukturen
isolation
økonomiudvalget
##odes
##rost
behør
rødme
stein
##legemer
ryster
medlemm
misbrugt
frokosten
referatet
udfoldelse
##%,
##uin
##fase
##otel
come
flov
pent
vase
bumser
symfoni
bakterie
michelle
koncepter
udbredelsen
##ickl
16-
##sserne
dråbe
salte
opgøret
##arbejdede
favrskov
fredelig
højtalere
deltageren
færdiggøre
tilskrives
efterårsferien
##edet
##sbøger
kerner
tænket
afrappor
ærlighed
mikroskop
##sberettigede
præsentationer
7)
0,8
bronz
##auktion
geniale
pendler
dygtigste
udspiller
underlaget
ødelæggende
##-2018
taktik
ideologi
michelin
##princippet
lønninger
sekundære
abe
fant
snur
##cyklus
##sækken
fødes
venne
##schmidt
rulles
triste
blomkål
korrektur
hjemmeplejen
modstanderen
fremstillingen
(20
eksemplet
repareret
verdensom
kalenderår
sommerland
ekstrabladet
##ced
##odser
item
##splant
##atering
##bryllup
skygger
smukkere
indtastet
familiemedlem
core
mann
mete
tyde
##skatte
15-20
blyant
cremer
atletik
opefter
støvring
overkommelig
gennemgribende
##algene
##sorter
løbeb
tvist
leveren
##skarakter
##spiration
lærlinge
tilbagel
medbringer
realiseret
anmodningen
arbejdsstyrken
gan
flora
andrea
ristet
hjemlige
sproglig
isolerede
##ures
aven
##kaldet
indser
færdsel
partikel
##oi
##arg
mk
39,
##rader
hoff
pono
clint
damen
##folkene
skildpad
usikkert
drivhuset
forbillede
##konstruktioner
##parker
lugten
straffen
træneren
udstille
afspejles
published
##jun
1986
arts
inderst
restitu
##svækkende
tilhørte
flensburg
opsøgende
basketball
jammerbugt
eksisterede
##køl
##laus
yes
##åbnet
lakt
trig
##grønne
##vejret
skate
##egangen
sårede
bordene
lesbian
sekundær
gymnasier
nyhederne
kursisterne
prisklasser
##ief
##xit
##sbøl
##iders
##sbach
##vildt
pusle
retsfor
rettidig
analytics
mikroorganis
##sædet
tatto
udvej
bjerre
rattet
vidend
##gruppens
komponist
forstyrret
gys
nils
##medalje
##ådgiver
fiskere
uundværlig
##700
dab
##acher
##index
hopp
##skjern
##stræde
athen
fabri
svovl
sukkeret
singapore
fladskærms
##bye
##kendes
##udøver
hammel
påføre
veldig
afbryder
##regeringen
forberedte
datatilsynet
administreres
##fikk
pes
piv
##egårds
##sforsk
kroge
lucas
bakket
skydes
udskyde
fødselsdage
fremmedsprog
revolutioner
skattemæssige
##lette
eric
kate
koch
genialt
##handlinger
##kategorier
##rand
sås
##ikøbet
byrde
rørte
##figurer
##kroppen
##sundhed
##fyldning
##spligten
##estruktur
byrådets
potentialer
retssikkerhed
##oko
##fjern
##icher
##tiets
avoc
bleven
karton
udløst
velgør
værdis
##emæssigt
##kammerat
##ordfører
scanpix
dominerer
erhvervsk
utradition
afbalanceret
byggematerialer
##ios
htc
nam
uvæ
halen
reval
##ekspert
##slutter
grafen
tiltalt
elastisk
kirstine
ligeglade
familiesammen
##endo
182
asger
hævde
##ruppens
##studier
udstil
##regering
florida
oplægget
næststørste
##hang
45,
##smuseet
kiropra
arbejdsb
stemplet
amerikaner
parforholdet
##oney
irske
ærter
##biografi
adskille
operativ
solvarme
opbevaret
nø
##fing
cot
##insen
##prote
##sfejl
peru
kalium
nattel
prislo
brikker
villaer
frednings
bestseller
chauffører
refleksioner
grænseværdier
##kit
mø
##hule
tøv
##foged
irma
block
fried
##estykke
frites
holding
anvendelig
emballagen
underholdt
thorvaldsen
brugervenlig
døjer
hæmor
##elseste
##øjtnant
svigter
akkompag
opereret
flødeskum
grønsager
foranstaltning
spillemaskiner
ric
æde
fyrt
hong
##ussens
aflæse
lageret
sælgeren
##størrelser
sædevarme
anledningen
nordjyllands
##oms
##rute
0,6
hhx
##asien
##ægtes
##uleres
pyram
vojens
brandet
forelæs
afregnes
##bekæmpelse
selvhjælp
##ped
7:
såå
indv
##sbroen
lagkage
faglærte
møblerne
sprunget
nedrivning
tilsætnings
udbetalingen
##db
klag
knæene
messer
output
source
læbesti
##reduktion
##stigninger
bedstefar
amerikanere
kunstmuseum
1984
erektil
hjælpes
##versioner
kriterium
ovenikøbet
overlevede
tvillinger
koordinator
##ming
##sbro
##attle
oecd
raad
##udsalg
beryg
##skatten
frosne
malware
højbjerg
månedens
opbygger
forbrydelse
konservativ
tilbagegang
diskrimination
##rives
omkr
want
frans
ørred
##klipper
forøge
nitrat
opgang
udbudt
uklart
##estyring
##følgning
##senheden
##vindende
klasses
energisk
skrivelse
lodtrækning
##gennemsnittet
cs
boss
##centrum
simone
##øsninger
debitor
pålægge
forlanger
besættelsen
indsigelser
indsn
krænk
##nyheder
##vinduet
passive
tydeligere
introducerer
betalingsform
cust
grey
##færdig
piske
stedets
vestind
underskrives
befolkningens
professionshøj
##ted
##andra
saxo
##guiden
infer
##stoffet
##varerne
hofter
##mesteren
dagplej
natural
##holdelses
##safdeling
profilen
symbolet
branchens
genoptage
bosiddende
fodboldspiller
dokumentationen
##tip
##eleg
##rier
##sbar
jug
##edicin
strim
##slesvig
kommes
sænket
hilsner
måltidet
onanerer
stønnede
afdækning
forstærke
jp
155
2500
bark
milan
##sammens
skrues
tillod
julepynt
fortidens
personens
forsvarets
forvandling
fremvisning
fdf
jos
pie
keld
siem
siri
##ekraft
hønse
salme
destru
engros
påført
trænede
##grupperne
bagerste
forhuden
hvidvask
skoleled
justerbar
fagområder
aldersgruppe
##wl
agt
pont
seer
boder
##oterapi
dyster
søjler
##planerne
european
tilføres
fabrikker
ulykkelig
bivirkning
##omne
cher
lagen
ørsted
##sbeløbet
fælless
kulinar
livlige
madpakke
fædreland
forsendelsen
strukturelle
argumentation
##3:
##tec
rt
##grill
##manns
bring
støbt
bombar
domæner
##læggelsen
##ændringen
kosmetik
reagerede
fremlægger
forstoppelse
##fed
skom
ærke
ægtem
nerver
genetisk
udfaldet
rudersdal
skiltning
##præg
##først
atlas
bagpå
apples
trægulve
åbenlyse
##definerede
fotografi
kulhydrat
rc
##edør
krad
pejs
##icitet
cream
førhen
ingrid
itunes
##spsykiat
ekspans
havørred
henviste
finanslov
grindsted
mastercard
udstråling
##beskrivelser
##gro
##hes
aj
##oste
ifl
##beslag
##teborg
poesi
renses
unødig
øjensk
persien
valgfri
overslag
komplekst
ankenævnet
religioner
frivillighed
ressourcerne
installations
##uil
grob
munch
forseg
løftes
menuer
tunnel
besynder
hvedemel
kompakte
læsningen
##cop
##oker
##tium
beta
susp
køling
filtrere
forelagt
garantier
svingende
konfiguration
##vaske
##vævet
6000
flue
spra
##rænder
##spakke
hotte
lærem
magen
##handsker
oprejst
##månederne
forskrift
gynækolog
##rs
##bab
##æson
cav
##farlig
##igende
bedømt
##ficering
chelsea
kongelig
træpiller
udlejnings
motiverende
##find
##ådes
lill
##ejendom
##vninger
genvej
damerne
dybeste
marsvin
salaten
veterin
opgraderet
##åder
lcd
sug
##brande
julia
women
oprens
rigere
##estrateg
kodeord
udlevere
fokuseres
hollandsk
scandinav
kompensere
kunsthåndværk
act
ferr
##privat
##æderne
##grænsen
uagtet
##økonomien
overvinde
integritet
computerspil
forfatterens
videreudvikling
##ammet
cart
trip
##kugler
##virket
lotus
##ledende
eskort
kablet
karina
lyseblå
feriehus
fravælge
udmærker
rækkehuse
uhyggelig
integreres
##medarbejdere
komposition
renoveringen
erhvervsmæssige
eh
##teur
2-4
##rigtig
##gevinst
##taleren
børsno
ivrige
##iennitet
nemmest
hovedban
citronsaft
kraftfulde
##forretninger
gennemtænkt
lejekontrakt
rådhuspladsen
markedsførings
tayl
uagt
turbo
express
racisme
inderligt
hotellerne
dyrevelfærd
##ours
60-
hytter
afgange
giftede
indeklim
relative
spisestue
dirigenten
mekanismer
tilbringer
varetagelse
fagforeninger
##hænd
fake
klør
prik
økos
pseud
##rålende
synonym
sygeplej
skabelsen
genoprette
reklamation
arrangørerne
boligselskab
optagelserne
##aust
##riget
##adskil
##varmer
##lændere
sagsnr
ubrugt
##sprodukt
##strømmen
streger
medbragt
kritiseret
rki
##estret
forsyn
værløse
imponere
kapitlet
udlejeren
fokuserede
skimmelsvamp
forskellighed
##plu
##foli
##sige
sud
hdmi
##eguide
forur
mælkes
vænnet
byggetil
omsættes
rækkehus
incitament
mailadresse
brugervenlighed
informationerne
tac
vii
##ogene
prono
##ektoren
##tagerne
##sboliger
hullerne
ombygget
udviklende
##oux
8%
##space
##gasser
forude
sjoveste
gastronom
##sforeninger
powerpoint
videreudvikle
medarbejderens
##øjlen
atel
bøge
##fløjen
##shoved
andele
unionen
western
##advokaten
antikvar
##blandingen
postnummer
modernisering
videokvalitet
internetadgang
##fix
##amas
ænder
##slinjen
barned
kokken
komfur
baseres
chicago
##instituttet
##interesserede
##sbestemmelser
tilbagebetales
##%)
##dim
4-6
##emann
arla
kært
filme
train
25.000
chillo
overskredet
##pik
##resp
5,5
##rændt
brav
emin
skue
##atiker
psyke
##rupperne
opmuntr
##tidligere
rigsrevis
afspænding
kontroversi
lanceringen
folkekirkens
##http
1,7
saun
##smægler
pensum
##struende
bookmak
fodring
brændsel
partierne
udlægning
##izer
het
##fibre
##ssyge
amor
##barnet
bered
sække
blødere
gavmild
offline
##afspiller
bedømmes
væddemål
bedrifter
intensiver
procentdel
dybdegående
gentagelser
overførsels
udstillings
1.5
##genes
##arkivet
smørre
dosering
langtfra
karantæne
knapperne
sammenstød
miljøvenlige
rejseforsikring
##eben
1,1
5.1
##køret
gros
hell
fælder
faderens
prædiken
undervises
trafikanter
unødvendigt
vanskeligere
177
##render
ensid
##eventyr
mægtig
abstrakt
sparekassen
##sbetingelserne
antioxidanter
##håb
##ekan
##grød
##niske
crow
styrt
overgå
brækket
hjertek
beskyttes
adskillelse
applikation
law
##rikke
anno
slav
nærme
afdæmp
hilser
##sformand
fronter
ideerne
tåstrup
tilskuds
adspurgte
##gal
##uff
##ione
##psis
naiv
impuls
skødet
stenene
belgiske
overlegen
realdania
patienternes
anlægsaktiver
arbejdsvilkår
forsamlingshus
##81
##olaps
##skæde
##gammel
##medier
flamm
lukas
##illerne
##tilgæng
fyldet
gevind
ledsag
beruset
analyserer
fordelings
lokalområde
begivenheden
##tish
mie
##apien
##skabt
huds
brydes
kurver
alarmen
erfaret
hektisk
##oplysning
skadelig
individet
ufaglærte
opbevarings
##frys
suz
##faste
oase
slad
##passer
##remand
##spapir
kronik
ristede
østrogen
opfindelse
map
##heste
##svogn
demo
besti
elbil
##hoveder
spotte
arsenal
##genstande
ministre
thorning
lægehjælp
rettelser
besættelses
opholdsstue
tilmeldingen
##ims
##jak
##zym
pag
help
afkræ
kapel
tærte
forband
krøller
lavpris
##sfriheden
bordeaux
##sbetændelse
lokalplanens
akkreditering
følelsesmæssig
##tide
apv
klein
opfør
##eskader
##miljøer
##ristian
advarsler
sg
##ensor
##espor
peng
miles
##strande
børnel
polter
banerne
melding
panelet
williams
##fordelingen
talentfulde
##anking
behårede
helbrede
indsprøj
håndtaget
tegningen
svenskerne
naturområder
velbefindende
##blød
his
##nuder
agur
hads
ping
##hårede
##arkitekt
##hygiejne
francisco
dagtimerne
ligegyldig
skrivebordet
pensionsordning
##boe
barsk
steds
hårtab
genkender
luksuriøse
politikken
vejlednings
registreringer
svæv
saudi
ansøgt
gunnar
skovene
winther
offshore
overvære
afgrunden
##samarbejdet
klagenævnet
forholdsvist
uovertruffen
idrætsforening
##pasta
umåd
meyer
viggo
##teknisk
udstød
antikke
risskov
romanti
tyndere
festligt
gensidigt
gentagelse
opsætningen
vaccination
sammenfatning
begivenhederne
##6-
ct
ulv
dræg
greg
some
##kjoler
svejse
udvand
overtøj
forsikre
tjekkede
##sfunktioner
beregningerne
nid
##spray
iron
givent
godnat
godset
testes
afvises
tvilling
##sberetning
brevkasse
sårbarhed
grøntsagerne
mountainbike
svømmehallen
##****
joe
##sbrev
##trykt
slem
##tægter
level
snævre
sparke
##formidling
dækningen
hjemmehørende
##coli
##ulet
(15
##klang
anke
krok
nats
monte
slide
##ulenten
##skabsmøde
muslimsk
novellen
travlhed
juletræet
orienterer
sportsgrene
##mode
##pist
##olien
beord
bille
dragt
skytte
stream
ansigts
fossile
##færdighed
formodes
årstider
overskuds
familierne
forskellene
søgefunktion
arkitektonisk
kommuneplanen
lejlighedsvis
nødvendigheden
##eksp
##ious
##mans
hyre
omme
40.000
buttet
sennep
tredie
indfald
indvind
netbank
punktum
paragraf
##myndigheden
##væd
##bisk
gol
jyl
mim
nes
åop
##arbæk
##olere
1968
than
##sbutik
borup
fugls
milano
altanen
hypnose
udforsk
uploade
skildrer
matchende
pladserne
overrasker
aur
##eside
east
##oduler
##strene
linser
morsomt
tilbliv
##angivelse
rigspoli
beskattes
beregnings
fuldstændige
udbetalinger
administrativt
##aud
##øbe
##ards
##varm
##ænkes
##linien
##malede
tilnærm
generere
givetvis
hindring
mcdonald
barnebarn
samtidige
underjord
forsørgelse
kapitalistiske
(4.
sac
##evnen
##højeste
##skommune
address
ankomme
skibets
utrygge
midterste
##krist
##ørsel
8-10
bened
igjen
makro
ludere
rentes
bankede
mægtige
##smodellen
fritaget
arealerne
herlighed
forhøjelse
tiltalende
årsskiftet
##eøf
biz
##kring
##endens
##hugger
##massen
clara
##ritslev
##sigtige
double
redder
##menneske
handlem
rundtur
udsende
mistænkt
spædbørn
befriende
firkantet
lovpligtige
reproduktion
straffespark
##messe
##sfilm
gate
pros
##burger
##graver
divis
flask
##sparken
balder
skjuler
udstede
besværet
forslagene
boligområde
fordelagtige
##åbe
##relig
##åbent
##urerne
hurra
saldo
##assende
gendan
konsor
maribo
flittig
frisure
kapsler
kanterne
forkølelse
inflammation
##uz
##"),
1979
hvep
##intern
##kroner
hætte
påber
##sporten
dansede
vejledere
vejarbejde
besparelses
kommercielt
##cert
##ribe
1-0
arbe
skid
turn
##unstig
##smaskine
alsidigt
slidgigt
studeret
vinduesk
htx
teleg
bomber
##indekset
##slederen
tjenere
forlystelses
uvedkommende
##etal
##uist
##titel
tann
##busser
eufor
lektie
svende
guldborg
revisors
serveren
cirkulation
tjenestemænd
##ois
##kkest
admin
jager
søjle
formåen
trægulv
fredelige
trapperne
anvendelser
tilføjelser
styregruppen
##4:
##elag
14-
##risik
leop
pine
lagre
ungar
##løbende
##sgrænse
flamme
væsner
##afgrøder
##ætningen
mirakel
nedbryde
mangeårige
foreningerne
##sforstyrrelser
sundhedsområdet
mms
brøk
guit
spad
ibrug
impræg
jalous
afvikle
udlejet
blowjobs
rungsted
annullere
artiklerne
udvidelser
eksperterne
##!?
##opro
43,
60,
##coach
##skonto
2002,
steff
##brættet
flinke
forhen
kliche
advokaten
retningen
konkurrent
stressende
forelskelse
farvestrålende
##sår
##okkene
##psykiat
fjernt
##beholder
enstemm
tidsbes
ansætter
opgrader
tidligste
tilbagemelding
glo
##agnen
##egist
fifa
##stress
##esystem
påhæng
spekul
viktor
æggebl
##baggrund
##fortjent
##kategori
komment
skiltet
styling
##følsomhed
passeret
dekorationer
##smukt
gamb
ortop
stryg
etiket
forene
kobles
wonder
smadret
boulevard
landskabs
stilfulde
##udstillingen
stjernetegn
iværksætteri
oc
##ador
##plak
123
høg
##fæste
bend
peer
roen
##cyklen
belyser
monopol
sælgers
unødigt
farvande
succesen
##betalinger
sætningen
flyselskab
kaffemaskine
ji
##atel
##kurv
50'
byk
##.....
gyde
lånte
uklar
koloss
##skapital
paradig
håndteret
overfører
##strømningen
kapaciteten
koordineret
glatbarberet
identificerer
##tred
1.3
##stenen
fluer
egedal
lygter
skynde
hammers
oliefyr
retlige
rullede
bofælles
hyppigst
livslang
olympiske
underholde
forpligtende
kriminalfors
plejehjemmet
projektledelse
##zel
##bjæl
##rian
(30
mvh
##maske
##sites
##aviser
øvrig
##sbygger
##ælderen
hundes
notere
200.000
stillads
valentin
trustpilot
spisebordet
underordnet
søgemaskiner
tyv
geark
keder
servo
havens
hjulet
musical
notater
scooter
familieliv
uhyggelige
akademikere
personskade
modsætninger
##mass
amal
blus
##æbende
omslag
##patroner
slikkede
udsætter
ambassade
##ovic
##fordi
##parat
slow
uddyb
agerer
derned
hinder
syltet
##statistik
##potentiale
aggressive
superfransk
underbukser
usandsynligt
##debut
pack
##betræk
##scorer
epide
photo
følgere
skrevne
sveriges
##instruktør
selvrisiko
opfattelsen
tatoveringer
##ll
##sål
(9
##lock
##uare
raw
##green
##ulært
noah
pjat
uvis
##kravet
##spleje
2001,
freds
gylle
hænges
klassel
strakte
takster
udbetale
##eselskabet
##oversigten
passerede
tidsskrifter
6%
##ejob
##skra
0,00
ramp
børnem
knække
pejlem
instans
##sforpligt
kassereren
finansieringen
##hit
tud
edge
##belast
1.500
anita
clear
jytte
omgås
uimod
##ffekter
herret
timevis
tvinges
##skapacitet
andetsteds
markedsføre
##kru
##ulu
##rock
##stran
ujævn
##udbytte
amanda
##ladelser
jackson
grundlagde
##body
##rejs
outs
##elater
deine
fjenden
slægten
narkotika
fungerende
arbejdsformer
##lix
##læns
##this
djø
##poter
##skive
excl
gavl
##kkedes
##weekend
finere
##stjerner
deroppe
svømmet
##betalings
godkendelsen
##ateg
##corn
##dahl
##sman
##kødet
##nelse
##skåret
##sposter
kronen
lagret
trylle
vasken
develop
marokko
nikotin
opsiges
segment
ordforråd
udledningen
velgørenhed
fantasifulde
kontinuerlig
programmerne
##ury
##life
##slid
##sfuldt
kølet
lynge
beauti
kantine
skyerne
skiferie
aktiemarked
landstræner
parlamentar
utilfredshed
##vd
##ekr
##flag
19-
kyn
wol
1973
kridt
mørkl
iversen
metafor
radikal
skænder
vistnok
hyppigere
teknikere
sovjetiske
afstemningen
##tio
##akse
##degc
heg
nur
##etode
##evner
##ieren
saga
værn
prolet
øjenvi
fodspor
polterab
stiftede
ensartede
kyllinger
gigantiske
orienteres
##sær
1).
url
1978
lena
##ulator
lyver
skøde
##annelse
##brudgom
geomet
æblesk
forstad
morgens
stephen
uafbrudt
søgningen
udstråler
urimeligt
##fair
##rude
##skoles
drømte
masage
opklar
ribben
##akningen
udelukkes
vendinger
attraktion
troværdige
telefonerne
[...]
